<pad>	0
<bos>	0
<eos>	0
<unk>	0
<0x00>	0
<0x01>	0
<0x02>	0
<0x03>	0
<0x04>	0
<0x05>	0
<0x06>	0
<0x07>	0
<0x08>	0
<0x09>	0
<0x0A>	0
<0x0B>	0
<0x0C>	0
<0x0D>	0
<0x0E>	0
<0x0F>	0
<0x10>	0
<0x11>	0
<0x12>	0
<0x13>	0
<0x14>	0
<0x15>	0
<0x16>	0
<0x17>	0
<0x18>	0
<0x19>	0
<0x1A>	0
<0x1B>	0
<0x1C>	0
<0x1D>	0
<0x1E>	0
<0x1F>	0
<0x20>	0
<0x21>	0
<0x22>	0
<0x23>	0
<0x24>	0
<0x25>	0
<0x26>	0
<0x27>	0
<0x28>	0
<0x29>	0
<0x2A>	0
<0x2B>	0
<0x2C>	0
<0x2D>	0
<0x2E>	0
<0x2F>	0
<0x30>	0
<0x31>	0
<0x32>	0
<0x33>	0
<0x34>	0
<0x35>	0
<0x36>	0
<0x37>	0
<0x38>	0
<0x39>	0
<0x3A>	0
<0x3B>	0
<0x3C>	0
<0x3D>	0
<0x3E>	0
<0x3F>	0
<0x40>	0
<0x41>	0
<0x42>	0
<0x43>	0
<0x44>	0
<0x45>	0
<0x46>	0
<0x47>	0
<0x48>	0
<0x49>	0
<0x4A>	0
<0x4B>	0
<0x4C>	0
<0x4D>	0
<0x4E>	0
<0x4F>	0
<0x50>	0
<0x51>	0
<0x52>	0
<0x53>	0
<0x54>	0
<0x55>	0
<0x56>	0
<0x57>	0
<0x58>	0
<0x59>	0
<0x5A>	0
<0x5B>	0
<0x5C>	0
<0x5D>	0
<0x5E>	0
<0x5F>	0
<0x60>	0
<0x61>	0
<0x62>	0
<0x63>	0
<0x64>	0
<0x65>	0
<0x66>	0
<0x67>	0
<0x68>	0
<0x69>	0
<0x6A>	0
<0x6B>	0
<0x6C>	0
<0x6D>	0
<0x6E>	0
<0x6F>	0
<0x70>	0
<0x71>	0
<0x72>	0
<0x73>	0
<0x74>	0
<0x75>	0
<0x76>	0
<0x77>	0
<0x78>	0
<0x79>	0
<0x7A>	0
<0x7B>	0
<0x7C>	0
<0x7D>	0
<0x7E>	0
<0x7F>	0
<0x80>	0
<0x81>	0
<0x82>	0
<0x83>	0
<0x84>	0
<0x85>	0
<0x86>	0
<0x87>	0
<0x88>	0
<0x89>	0
<0x8A>	0
<0x8B>	0
<0x8C>	0
<0x8D>	0
<0x8E>	0
<0x8F>	0
<0x90>	0
<0x91>	0
<0x92>	0
<0x93>	0
<0x94>	0
<0x95>	0
<0x96>	0
<0x97>	0
<0x98>	0
<0x99>	0
<0x9A>	0
<0x9B>	0
<0x9C>	0
<0x9D>	0
<0x9E>	0
<0x9F>	0
<0xA0>	0
<0xA1>	0
<0xA2>	0
<0xA3>	0
<0xA4>	0
<0xA5>	0
<0xA6>	0
<0xA7>	0
<0xA8>	0
<0xA9>	0
<0xAA>	0
<0xAB>	0
<0xAC>	0
<0xAD>	0
<0xAE>	0
<0xAF>	0
<0xB0>	0
<0xB1>	0
<0xB2>	0
<0xB3>	0
<0xB4>	0
<0xB5>	0
<0xB6>	0
<0xB7>	0
<0xB8>	0
<0xB9>	0
<0xBA>	0
<0xBB>	0
<0xBC>	0
<0xBD>	0
<0xBE>	0
<0xBF>	0
<0xC0>	0
<0xC1>	0
<0xC2>	0
<0xC3>	0
<0xC4>	0
<0xC5>	0
<0xC6>	0
<0xC7>	0
<0xC8>	0
<0xC9>	0
<0xCA>	0
<0xCB>	0
<0xCC>	0
<0xCD>	0
<0xCE>	0
<0xCF>	0
<0xD0>	0
<0xD1>	0
<0xD2>	0
<0xD3>	0
<0xD4>	0
<0xD5>	0
<0xD6>	0
<0xD7>	0
<0xD8>	0
<0xD9>	0
<0xDA>	0
<0xDB>	0
<0xDC>	0
<0xDD>	0
<0xDE>	0
<0xDF>	0
<0xE0>	0
<0xE1>	0
<0xE2>	0
<0xE3>	0
<0xE4>	0
<0xE5>	0
<0xE6>	0
<0xE7>	0
<0xE8>	0
<0xE9>	0
<0xEA>	0
<0xEB>	0
<0xEC>	0
<0xED>	0
<0xEE>	0
<0xEF>	0
<0xF0>	0
<0xF1>	0
<0xF2>	0
<0xF3>	0
<0xF4>	0
<0xF5>	0
<0xF6>	0
<0xF7>	0
<0xF8>	0
<0xF9>	0
<0xFA>	0
<0xFB>	0
<0xFC>	0
<0xFD>	0
<0xFE>	0
<0xFF>	0
▁	-3.1224
.	-3.30014
,	-3.46351
0	-3.86473
▁the	-3.97086
1	-3.98354
2	-4.23565
▁of	-4.56554
▁and	-4.5674
3	-4.59092
▁to	-4.67437
▁a	-4.80114
s	-4.89483
5	-4.92149
▁in	-4.95498
4	-4.97335
-	-4.9777
9	-5.00139
)	-5.05636
8	-5.14619
6	-5.15221
_	-5.28549
7	-5.30548
▁(	-5.34266
:	-5.37092
▁is	-5.37771
(	-5.42246
'	-5.47813
▁for	-5.54921
▁that	-5.76874
▁with	-5.82642
▁on	-5.89241
’	-5.93692
▁I	-5.97064
;	-5.97545
의	-6.01172
▁-	-6.03569
▁The	-6.05712
▁you	-6.15053
▁it	-6.1559
▁as	-6.16581
▁was	-6.17368
일	-6.21198
▁=	-6.21406
▁are	-6.24623
/	-6.27168
▁be	-6.27221
▁"	-6.29882
▁at	-6.30125
▁by	-6.31461
에	-6.32434
▁this	-6.32754
▁from	-6.382
는	-6.45079
을	-6.477
t	-6.48388
이	-6.53158
▁or	-6.53725
▁have	-6.56253
"	-6.63119
▁an	-6.63384
를	-6.66964
▁$	-6.68174
가	-6.68249
▁{	-6.68448
?	-6.70011
▁'	-6.70071
▁수	-6.70417
은	-6.74612
▁can	-6.76006
▁not	-6.77297
]	-6.77905
▁your	-6.80155
▁}	-6.81136
▁:	-6.81365
▁will	-6.81937
▁“	-6.86373
);	-6.90018
년	-6.90466
▁has	-6.90533
▁we	-6.91398
!	-6.93199
x	-6.9659
▁if	-7.00152
▁A	-7.01876
도	-7.02851
▁but	-7.02861
%	-7.05911
과	-7.06288
▁all	-7.0656
▁|	-7.07914
▁one	-7.08474
로	-7.09089
에서	-7.10689
▁his	-7.1226
▁[	-7.12387
▁‘	-7.1334
▁he	-7.14085
▁which	-7.14242
월	-7.16111
▁more	-7.17749
”	-7.19891
▁their	-7.20944
a	-7.2157
▁they	-7.25379
▁있다	-7.25767
▁also	-7.27385
m	-7.27795
r	-7.29211
와	-7.29839
d	-7.30278
▁about	-7.30659
▁*	-7.32136
▁In	-7.33404
▁out	-7.34548
▁were	-7.35413
n	-7.36353
고	-7.37088
▁new	-7.38479
...	-7.38694
▁up	-7.38825
▁our	-7.3968
▁It	-7.39683
▁my	-7.40751
▁@	-7.42228
▁있는	-7.42449
▁time	-7.42676
▁이	-7.43557
{	-7.44042
으로	-7.44511
▁\	-7.44769
▁so	-7.45354
▁#	-7.45517
[	-7.45829
▁who	-7.45969
▁//	-7.46619
▁been	-7.48387
▁public	-7.48934
}	-7.49356
▁%	-7.50001
e	-7.5297
▁had	-7.5336
▁function	-7.53484
A	-7.54422
i	-7.5452
▁when	-7.54607
▁및	-7.55176
▁+	-7.55583
▁This	-7.56017
':	-7.56764
▁–	-7.56864
▁other	-7.57149
▁get	-7.59077
▁first	-7.59613
ing	-7.60242
=	-7.60729
S	-7.60826
y	-7.60864
▁there	-7.61626
▁있습니다	-7.62097
),	-7.62106
▁do	-7.6331
$	-7.63491
▁would	-7.63915
▁like	-7.64413
▁some	-7.64817
한	-7.66894
▁two	-7.6694
▁its	-7.67086
▁into	-7.68568
+	-7.70021
▁;	-7.70823
▁than	-7.71613
▁what	-7.72242
>	-7.72787
C	-7.74097
인	-7.74816
▁just	-7.75805
ed	-7.76107
▁&	-7.76279
▁her	-7.7733
▁only	-7.77716
▁said	-7.78262
▁var	-7.79536
▁over	-7.79601
▁no	-7.7972
·	-7.80239
▁We	-7.80268
\	-7.80299
▁He	-7.81682
xmath	-7.82406
▁any	-7.84186
▁them	-7.85032
▁_	-7.85771
▁한	-7.85925
만	-7.87064
▁people	-7.87197
▁use	-7.88106
▁after	-7.89931
▁그	-7.90248
▁<	-7.91324
▁where	-7.91921
▁등	-7.92032
I	-7.92262
▁)	-7.9236
▁me	-7.93076
D	-7.9345
re	-7.93477
▁may	-7.95096
▁then	-7.95136
▁most	-7.9578
다	-7.97846
c	-7.98017
▁how	-7.99516
▁these	-7.99794
▁make	-7.99924
▁well	-8.00031
▁If	-8.01422
▁years	-8.0218
▁import	-8.02908
▁대한	-8.03115
▁work	-8.03488
▁i	-8.03502
com	-8.0356
▁/	-8.03624
b	-8.0424
();	-8.05681
th	-8.06459
▁You	-8.07041
▁year	-8.07439
▁--	-8.07686
f	-8.0846
▁return	-8.09081
하고	-8.10039
).	-8.10303
h	-8.10663
﻿	-8.11714
출장안마	-8.12827
▁through	-8.12859
|	-8.1334
▁many	-8.1343
▁she	-8.13727
▁very	-8.13872
▁x	-8.14072
이다	-8.15213
▁set	-8.15981
in	-8.16062
▁such	-8.16197
하는	-8.16228
▁B	-8.17087
▁nop	-8.1788
▁used	-8.17997
▁C	-8.18124
▁now	-8.18227
▁...	-8.1835
▁더	-8.1839
▁way	-8.20432
p	-8.20692
▁see	-8.21308
▁could	-8.22259
지	-8.2236
▁should	-8.23435
▁because	-8.23958
▁need	-8.23985
▁end	-8.24297
()	-8.24333
▁back	-8.24577
~	-8.24676
▁us	-8.25423
("	-8.26973
er	-8.27106
▁good	-8.27308
▁New	-8.27387
▁know	-8.27447
B	-8.28244
▁while	-8.28464
▁위해	-8.28695
▁each	-8.29682
▁between	-8.29894
기	-8.30167
▁right	-8.31081
ve	-8.31683
▁made	-8.31805
g	-8.32176
▁here	-8.32514
▁even	-8.32777
나	-8.33222
해	-8.33319
▁much	-8.33364
▁before	-8.33503
The	-8.33946
▁data	-8.34121
▁For	-8.34126
▁last	-8.35013
▁•	-8.35185
▁number	-8.35454
▁카지노	-8.35458
▁using	-8.35909
할	-8.36208
k	-8.36262
ly	-8.36323
▁being	-8.36364
원	-8.36451
▁S	-8.37007
▁p	-8.37169
시	-8.37673
▁day	-8.37886
▁three	-8.38353
▁할	-8.38875
▁중	-8.38991
▁통해	-8.39082
o	-8.39707
▁mov	-8.40452
▁help	-8.40787
▁case	-8.41231
▁both	-8.41576
l	-8.42068
▁want	-8.42482
▁take	-8.42675
▁same	-8.43386
대	-8.43685
F	-8.43711
▁part	-8.4372
▁best	-8.43763
▁→	-8.43837
▁don	-8.4386
▁전	-8.44289
▁But	-8.44292
▁find	-8.44315
▁information	-8.44475
–	-8.44593
▁those	-8.44635
▁high	-8.45381
▁him	-8.45508
▁제	-8.46013
^	-8.46035
▁private	-8.46402
."	-8.46586
▁것	-8.47302
자	-8.47628
▁게임	-8.47871
ll	-8.48873
입니다	-8.49009
▁And	-8.49217
▁함께	-8.49713
▁home	-8.50375
▁go	-8.50439
▁during	-8.5049
▁D	-8.50861
▁under	-8.50972
▁한다	-8.52188
▁long	-8.52518
M	-8.52844
▁off	-8.53286
▁add	-8.54165
int	-8.54261
E	-8.54843
▁around	-8.55281
▁great	-8.55504
▁think	-8.5576
서	-8.56025
▁life	-8.56143
▁모텔	-8.56203
▁M	-8.56226
T	-8.56312
까지	-8.57122
▁R	-8.57219
▁U	-8.57234
▁down	-8.57641
오프화이트	-8.57876
▁다른	-8.58056
▁game	-8.58093
▁still	-8.58692
R	-8.58733
▁As	-8.58781
▁가장	-8.59068
to	-8.59315
▁T	-8.59337
X	-8.59361
▁P	-8.59596
▁different	-8.59698
▁open	-8.5972
▁There	-8.59787
개	-8.60077
▁>	-8.60677
P	-8.60728
했다	-8.60737
@	-8.60821
▁하는	-8.61094
",	-8.61096
▁c	-8.61164
카지노	-8.61425
▁world	-8.61622
▁경우	-8.61656
▁team	-8.61767
▁때	-8.63265
▁American	-8.6331
▁system	-8.63334
▁really	-8.63459
▁including	-8.63933
*	-8.63956
▁n	-8.64359
▁같은	-8.64462
▁E	-8.64468
.”	-8.64614
▁value	-8.64632
▁So	-8.64704
▁b	-8.64849
#	-8.65091
▁후	-8.65743
▁위한	-8.65827
▁They	-8.66125
며	-8.66158
▁type	-8.66282
▁found	-8.66725
▁To	-8.66804
||	-8.66871
▁second	-8.67122
▁since	-8.67505
▁많은	-8.67584
▁state	-8.67608
▁own	-8.68033
on	-8.68204
▁going	-8.68337
▁did	-8.68351
▁Serial	-8.68525
type	-8.6861
▁것이	-8.68648
▁every	-8.70204
▁호텔	-8.70952
G	-8.71004
,"	-8.71172
,$	-8.7129
▁F	-8.71474
▁place	-8.71574
바카라	-8.71615
z	-8.71635
▁University	-8.72345
▁next	-8.72767
▁것이다	-8.73282
▁False	-8.73347
▁$\	-8.73391
▁show	-8.73487
N	-8.74089
&	-8.74239
▁모든	-8.74361
▁few	-8.74594
es	-8.74671
▁area	-8.74676
▁free	-8.74907
▁name	-8.75035
String	-8.75066
v	-8.75274
▁too	-8.76116
▁available	-8.76524
▁does	-8.77169
▁What	-8.77228
주	-8.77353
▁without	-8.77395
들이	-8.77631
▁r	-8.77656
▁void	-8.77945
▁class	-8.78181
or	-8.78276
frac	-8.78614
▁e	-8.78741
▁business	-8.78976
▁left	-8.78981
▁de	-8.79073
▁look	-8.7918
u	-8.79636
▁것으로	-8.79763
▁m	-8.79929
▁school	-8.80087
▁am	-8.801
L	-8.80262
▁N	-8.80367
▁family	-8.80576
▁잘	-8.80735
▁On	-8.80919
):	-8.81121
면	-8.81254
▁another	-8.81328
▁G	-8.81329
하여	-8.81909
▁small	-8.81949
▁line	-8.82144
▁내	-8.83056
수	-8.83646
▁group	-8.84013
▁또한	-8.84048
▁little	-8.84079
▁must	-8.84131
▁f	-8.84484
▁그리고	-8.85273
▁No	-8.85426
▁else	-8.85507
▁company	-8.85791
▁point	-8.85824
▁K	-8.85993
}{	-8.86119
▁따라	-8.86222
");	-8.86348
▁following	-8.86528
▁두	-8.8696
▁{'	-8.86985
▁When	-8.87176
▁것을	-8.87368
▁better	-8.87503
이나	-8.87735
<	-8.87802
▁때문에	-8.87959
H	-8.87967
에는	-8.87968
▁She	-8.88228
하게	-8.88232
▁top	-8.88362
▁지난	-8.88373
▁한국	-8.88463
▁order	-8.88552
▁것은	-8.88874
▁All	-8.88959
된	-8.89084
라고	-8.89148
라는	-8.89208
▁until	-8.89435
▁against	-8.89663
the	-8.90072
▁service	-8.90095
▁season	-8.90126
▁love	-8.90254
적	-8.90668
K	-8.91172
▁start	-8.91191
▁다양한	-8.91267
▁always	-8.91313
▁*/	-8.91925
▁y	-8.92048
▁L	-8.9212
▁come	-8.92412
▁또는	-8.92614
▁push	-8.92737
명	-8.92962
is	-8.93105
void	-8.93201
사	-8.93249
▁United	-8.9327
▁true	-8.9331
▁water	-8.9337
▁==	-8.93415
▁four	-8.9389
▁something	-8.9413
://	-8.94185
▁say	-8.94262
▁—	-8.94348
▁local	-8.94611
▁things	-8.94685
▁days	-8.94867
▁full	-8.95206
this	-8.9529
▁J	-8.95428
회	-8.95636
▁support	-8.95774
▁call	-8.95919
▁pop	-8.96779
▁That	-8.96901
▁대해	-8.97023
게	-8.9723
에게	-8.97369
▁week	-8.97676
▁within	-8.97953
▁큰	-8.98145
장	-8.98222
▁site	-8.9844
▁based	-8.99333
▁might	-8.99405
▁got	-8.99609
w	-8.99719
▁non	-9.00174
loc	-9.00265
▁large	-9.00288
》	-9.00568
▁play	-9.00612
▁given	-9.00638
라	-9.00722
▁known	-9.0109
성	-9.01097
▁추천	-9.01307
▁program	-9.01423
▁X	-9.01703
▁안	-9.01928
▁change	-9.02194
▁H	-9.02377
_{	-9.02548
▁give	-9.02604
▁called	-9.02692
▁never	-9.02807
▁per	-9.02913
▁sure	-9.03007
▁students	-9.03093
▁old	-9.0311
▁lot	-9.0318
▁important	-9.03201
에서는	-9.03409
V	-9.03764
차	-9.04057
▁합니다	-9.04211
▁children	-9.04517
이라고	-9.05063
▁provide	-9.0517
▁again	-9.05177
▁put	-9.0522
▁several	-9.05307
Y	-9.05428
▁include	-9.05549
호	-9.05716
al	-9.05889
▁시	-9.05969
▁static	-9.06025
▁book	-9.06168
▁없는	-9.06305
and	-9.06347
▁May	-9.06723
▁References	-9.06863
▁experience	-9.07069
▁l	-9.07089
text	-9.07131
▁players	-9.07454
▁series	-9.07621
$$	-9.07678
▁하지만	-9.07779
▁later	-9.07838
,”	-9.07966
▁$$	-9.08103
▁process	-9.08315
한다	-9.08349
▁run	-9.0866
▁int	-9.08755
화	-9.08944
▁After	-9.09198
▁또	-9.09261
ht	-9.09502
▁기자	-9.0959
▁side	-9.09596
▁post	-9.09843
세	-9.1003
▁able	-9.10616
▁form	-9.10627
▁With	-9.10772
j	-9.10859
▁current	-9.10985
▁O	-9.11095
▁One	-9.11484
▁list	-9.11491
진	-9.11564
▁problem	-9.11585
▁School	-9.1176
▁다	-9.11901
▁today	-9.12078
하며	-9.1216
▁level	-9.12314
▁sub	-9.12364
▁My	-9.12397
▁along	-9.12496
하기	-9.12539
id	-9.12567
분	-9.12728
하지	-9.13062
▁g	-9.134
스	-9.13411
▁power	-9.13429
▁working	-9.13446
▁많이	-9.1357
▁null	-9.1374
▁won	-9.13767
▁좋은	-9.13813
▁possible	-9.14048
제	-9.14052
야	-9.14178
▁study	-9.14326
▁At	-9.1463
▁const	-9.1477
▁services	-9.14939
▁away	-9.15246
▁times	-9.15399
▁무료	-9.15413
Number	-9.15435
▁single	-9.15486
▁하고	-9.15493
▁patients	-9.15667
▁V	-9.1579
data	-9.15855
▁example	-9.15915
▁result	-9.15915
▁making	-9.16041
조	-9.16359
▁National	-9.16476
▁real	-9.16482
▁State	-9.16564
위	-9.16846
▁test	-9.16871
▁results	-9.16931
man	-9.17012
▁says	-9.17144
▁keep	-9.17275
▁read	-9.17304
▁less	-9.17405
▁due	-9.17429
▁했다	-9.17441
▁field	-9.17472
합니다	-9.17764
▁false	-9.17833
▁World	-9.18121
▁course	-9.18138
▁York	-9.18142
▁d	-9.1842
▁event	-9.18446
▁online	-9.18769
▁아니라	-9.18979
▁모두	-9.19064
right	-9.1941
▁early	-9.19562
▁City	-9.198
▁가격	-9.1982
▁새로운	-9.19866
left	-9.20061
▁출장	-9.20339
▁often	-9.20343
▁TV	-9.20356
print	-9.20489
▁등을	-9.20769
▁music	-9.20824
부	-9.20876
상	-9.20897
▁미국	-9.20904
▁links	-9.20986
▁States	-9.21129
▁done	-9.21311
▁community	-9.21328
▁space	-9.21579
▁v	-9.22258
▁city	-9.22447
▁How	-9.22612
▁서울	-9.22731
▁having	-9.22749
시간	-9.22876
동	-9.2289
▁다시	-9.23038
어	-9.23183
O	-9.23265
▁County	-9.23334
▁together	-9.23335
▁looking	-9.23602
전	-9.23661
▁St	-9.23684
▁points	-9.23817
▁될	-9.23926
▁현재	-9.23981
▁design	-9.24345
▁있으며	-9.24464
▁우리	-9.24485
▁이번	-9.24522
비	-9.2465
▁model	-9.24716
들을	-9.24986
형	-9.25133
en	-9.25144
용	-9.25284
이라는	-9.2529
▁body	-9.25321
▁range	-9.2535
°	-9.25351
▁why	-9.25672
▁big	-9.25737
들은	-9.25743
ers	-9.25985
▁care	-9.26086
▁John	-9.26162
W	-9.26357
▁games	-9.26419
▁서비스	-9.26535
▁create	-9.26578
보다	-9.26863
▁film	-9.27023
▁low	-9.27054
▁five	-9.27142
리	-9.27453
▁months	-9.27507
▁above	-9.27659
▁health	-9.27676
▁page	-9.27695
▁least	-9.27926
▁million	-9.27996
▁이후	-9.28185
▁However	-9.28269
▁members	-9.28341
▁]	-9.28372
—	-9.28529
get	-9.28571
▁These	-9.286
▁re	-9.28753
▁《	-9.28934
▁main	-9.29035
():	-9.29069
▁website	-9.29184
org	-9.29426
▁/**	-9.29603
▁become	-9.29745
▁money	-9.29751
▁project	-9.29792
▁already	-9.29916
▁thing	-9.3005
▁energy	-9.30122
▁file	-9.30184
▁feel	-9.30258
▁however	-9.30407
▁control	-9.30596
▁let	-9.30719
▁video	-9.30726
▁이상	-9.30899
▁t	-9.30936
▁enough	-9.31009
st	-9.31189
}$	-9.31337
up	-9.31521
▁version	-9.31798
▁though	-9.31861
▁history	-9.3187
▁check	-9.31877
▁특히	-9.31885
▁try	-9.31933
▁size	-9.31957
▁W	-9.32123
▁South	-9.32188
name	-9.322
▁research	-9.32299
▁quality	-9.32529
▁far	-9.32633
▁women	-9.32756
▁그러나	-9.32906
▁총	-9.3305
▁flash	-9.33078
▁below	-9.33401
들	-9.33431
▁night	-9.33575
▁code	-9.33577
▁Our	-9.33777
선	-9.33845
Z	-9.3385
▁An	-9.33884
▁fact	-9.34072
▁말했다	-9.34126
param	-9.34235
▁products	-9.34348
▁took	-9.34462
▁means	-9.34514
co	-9.3452
set	-9.34523
▁access	-9.34549
아	-9.34589
▁product	-9.34653
println	-9.34672
▁어떤	-9.34692
▁government	-9.34713
▁total	-9.34752
▁started	-9.34814
▁~	-9.34941
▁food	-9.35117
▁car	-9.35139
▁country	-9.35167
▁light	-9.35203
▁hard	-9.35271
부터	-9.35337
▁관련	-9.35508
▁head	-9.35521
end	-9.35894
▁By	-9.35894
▁past	-9.36041
▁easy	-9.36107
We	-9.36194
요	-9.36398
mm	-9.36413
year	-9.36526
▁bit	-9.36654
▁came	-9.36836
Event	-9.36996
▁once	-9.37004
size	-9.37021
▁record	-9.37031
▁question	-9.37051
▁development	-9.37282
▁중국	-9.37379
▁didn	-9.37407
▁makes	-9.37424
▁See	-9.37898
▁room	-9.37952
▁이런	-9.38389
▁man	-9.38546
▁needs	-9.38591
▁market	-9.38837
}\	-9.39171
U	-9.39176
▁short	-9.39207
▁바로	-9.39305
▁live	-9.3935
▁patient	-9.39403
▁그는	-9.39588
▁story	-9.39598
▁either	-9.39874
same	-9.3988
▁된다	-9.39924
▁ever	-9.39938
as	-9.39974
";	-9.39996
▁밝혔다	-9.40013
▁North	-9.40174
▁move	-9.40433
신	-9.40832
▁third	-9.40979
▁doesn	-9.41065
▁person	-9.41107
▁약	-9.41132
▁ago	-9.41514
":	-9.41607
▁lea	-9.41739
able	-9.41783
▁없다	-9.41813
▁k	-9.41859
▁seen	-9.4199
▁있도록	-9.42629
▁across	-9.42863
▁final	-9.42891
▁went	-9.43028
▁offer	-9.43106
▁External	-9.43113
time	-9.43163
▁major	-9.4325
addresses	-9.43334
구	-9.43359
▁hand	-9.43421
▁age	-9.43606
▁Now	-9.43636
▁김	-9.43789
▁주	-9.43794
▁others	-9.43809
▁보기	-9.44149
▁된	-9.44226
q	-9.44457
align	-9.44531
▁March	-9.44574
▁minutes	-9.44634
▁present	-9.44642
▁getting	-9.44668
▁half	-9.44801
▁super	-9.45063
OP	-9.45127
▁al	-9.45206
▁email	-9.45366
▁볼	-9.45418
▁special	-9.45461
미	-9.45523
▁hours	-9.45523
congruent	-9.45636
▁features	-9.45692
Type	-9.45832
▁세계	-9.45841
▁com	-9.45952
kr	-9.46208
▁같이	-9.4621
▁||	-9.46329
처럼	-9.46362
an	-9.46512
중	-9.46753
▁law	-9.46862
▁rate	-9.46995
▁break	-9.47063
마카오	-9.47088
▁doing	-9.47104
▁h	-9.47838
▁position	-9.47846
▁general	-9.47906
Data	-9.47972
▁original	-9.48012
적인	-9.48185
▁house	-9.48219
▁future	-9.48251
▁complete	-9.48326
km	-9.48354
▁원	-9.48384
식	-9.48494
▁His	-9.48577
▁동안	-9.48617
▁job	-9.48738
▁percent	-9.48769
▁June	-9.48771
▁US	-9.48798
▁close	-9.48826
▁첫	-9.48882
▁오	-9.48891
▁report	-9.48922
▁played	-9.48923
▁yet	-9.48992
▁actually	-9.49044
▁j	-9.49154
}}	-9.49158
▁key	-9.49221
▁became	-9.49253
▁있어	-9.49316
▁등의	-9.49868
▁해	-9.49966
▁comes	-9.49995
▁men	-9.50053
여	-9.50077
▁member	-9.50082
▁located	-9.50086
▁treatment	-9.50195
▁여러	-9.50271
J	-9.50373
▁cases	-9.50625
us	-9.5069
▁simple	-9.50845
▁:=	-9.50982
▁April	-9.51164
▁career	-9.512
▁http	-9.51578
▁Center	-9.51602
▁addresses	-9.51626
되는	-9.51641
▁thought	-9.51741
▁building	-9.51928
▁among	-9.52002
▁Do	-9.52181
))	-9.52265
▁former	-9.5229
no	-9.52298
억	-9.52352
▁머신	-9.52359
▁received	-9.52439
▁further	-9.53004
="	-9.53274
건	-9.53286
▁extends	-9.53415
▁works	-9.53431
▁일본	-9.53479
begin	-9.53508
▁Q	-9.53834
▁released	-9.53963
▁common	-9.54121
▁lead	-9.54177
▁cost	-9.54293
▁mean	-9.54319
▁Set	-9.54343
▁최근	-9.54376
▁English	-9.54615
▁국내	-9.54623
들의	-9.54723
->	-9.54825
▁month	-9.54868
class	-9.54949
▁added	-9.54962
▁▲	-9.55033
▁near	-9.55132
▁required	-9.55133
▁있을	-9.55254
{\	-9.55326
▁From	-9.55632
▁un	-9.55713
▁reported	-9.55719
▁please	-9.55719
▁addition	-9.55804
정	-9.55926
하였다	-9.55946
▁제품	-9.5602
▁price	-9.56026
하면	-9.56249
▁various	-9.56328
해야	-9.56352
▁지역	-9.56418
▁shows	-9.56445
출장샵	-9.56463
▁whether	-9.56611
▁본	-9.56699
▁정보	-9.5692
rdi	-9.57058
▁직접	-9.572
▁contact	-9.57271
▁events	-9.57404
▁tell	-9.57427
▁plan	-9.57627
▁held	-9.5772
▁July	-9.58117
▁있고	-9.58209
▁loop	-9.58276
▁바	-9.58483
▁않고	-9.58704
▁Here	-9.58727
▁높은	-9.58727
▁view	-9.58774
value	-9.59024
▁social	-9.59052
▁San	-9.59249
include	-9.59272
▁것입니다	-9.59285
▁six	-9.59308
▁included	-9.59424
▁Your	-9.5961
▁performance	-9.59693
▁사용	-9.59783
하면서	-9.59861
▁similar	-9.59933
되어	-9.60087
▁album	-9.60099
▁January	-9.60239
에도	-9.60268
▁말	-9.60331
▁whole	-9.6039
▁여관	-9.60417
▁win	-9.60454
www	-9.60461
▁###	-9.60474
▁method	-9.60536
▁taking	-9.6064
▁Park	-9.60737
우	-9.60785
▁kind	-9.60857
▁후기	-9.6095
▁taken	-9.60953
▁player	-9.61023
▁사이트	-9.61131
▁areas	-9.61147
▁questions	-9.61198
산	-9.61222
▁software	-9.61223
▁West	-9.61241
▁영화	-9.61294
▁데	-9.61573
It	-9.61587
▁등이	-9.6164
▁table	-9.61682
▁fun	-9.61684
In	-9.61688
』	-9.61732
▁period	-9.61943
▁House	-9.61952
▁자신의	-9.61983
▁이를	-9.62025
▁share	-9.62113
예약	-9.62175
▁##	-9.62336
▁content	-9.62384
▁companies	-9.62541
▁College	-9.62582
▁어떻게	-9.62784
▁industry	-9.62801
▁않은	-9.62868
▁비	-9.62998
rsi	-9.63188
하다	-9.63308
▁color	-9.63405
▁While	-9.6359
▁role	-9.63669
콜걸	-9.63952
▁ld	-9.64017
▁delay	-9.6418
▁image	-9.64182
▁TYPE	-9.64222
▁told	-9.64375
▁problems	-9.64449
▁co	-9.64476
▁idea	-9.64511
example	-9.64558
▁friends	-9.6475
▁clear	-9.64786
▁young	-9.64802
▁almost	-9.64851
▁child	-9.64929
소	-9.64974
Object	-9.65005
NT	-9.65023
▁front	-9.65187
▁있었다	-9.65292
▁higher	-9.65424
▁property	-9.65541
▁specific	-9.65567
package	-9.65856
이며	-9.65907
▁answer	-9.65968
천	-9.66002
▁않는	-9.6602
▁town	-9.66085
▁text	-9.66182
▁visit	-9.66305
(_	-9.66336
▁High	-9.66339
▁personal	-9.66387
▁media	-9.6645
▁created	-9.66512
▁September	-9.66519
오	-9.66611
▁begin	-9.66622
▁lower	-9.66627
▁=>	-9.66642
▁이러한	-9.66672
▁게	-9.66788
▁International	-9.66856
▁training	-9.6686
▁band	-9.66911
▁black	-9.66912
▁Y	-9.66945
▁offers	-9.67006
▁built	-9.67114
▁이용	-9.67154
▁national	-9.67202
▁white	-9.67357
▁More	-9.67528
▁October	-9.67698
▁정	-9.67716
▁Some	-9.6779
▁슬롯	-9.67803
▁office	-9.67818
▁$$\	-9.67856
▁according	-9.67961
▁figure	-9.68053
▁values	-9.68138
▁air	-9.6818
uint	-9.68242
▁terms	-9.68269
▁technology	-9.68392
▁Z	-9.68496
","	-9.68746
▁provides	-9.68773
▁God	-9.68839
^{	-9.68871
▁solution	-9.68873
▁issues	-9.68877
▁각	-9.689
법	-9.68933
▁Dr	-9.69166
▁paper	-9.69234
던	-9.69318
▁everything	-9.69322
▁base	-9.69408
▁action	-9.69553
Name	-9.69646
▁population	-9.697
▁needed	-9.69704
▁includes	-9.69707
le	-9.69709
▁style	-9.69768
▁staff	-9.69774
▁management	-9.69986
▁standard	-9.70029
▁방법	-9.70098
▁written	-9.70147
▁section	-9.70158
▁someone	-9.70158
▁있다는	-9.70223
▁America	-9.70325
▁너무	-9.70334
▁issue	-9.70351
line	-9.70483
rcx	-9.70541
니	-9.7059
권	-9.70727
▁weeks	-9.70776
length	-9.70787
▁news	-9.7084
▁recent	-9.70842
▁probably	-9.70852
xcite	-9.7092
▁published	-9.70926
▁오프화이트	-9.70985
▁November	-9.70993
▁source	-9.70996
▁turn	-9.71107
▁et	-9.71245
데	-9.71282
define	-9.71347
▁especially	-9.71367
▁systems	-9.71372
▁anything	-9.71457
▁없이	-9.71531
▁교육	-9.71537
▁제공	-9.71556
▁average	-9.71559
▁changes	-9.7164
▁believe	-9.71647
▁numbers	-9.71739
▁신	-9.71747
▁provided	-9.71843
▁trying	-9.71955
▁professional	-9.72016
▁mass	-9.72027
▁Please	-9.72064
To	-9.72252
▁application	-9.72295
▁&&	-9.72402
▁아	-9.72428
▁via	-9.72437
▁우리는	-9.72528
▁perfect	-9.72536
▁rather	-9.72715
▁First	-9.72764
▁August	-9.72768
▁understand	-9.72791
This	-9.72863
ic	-9.72885
▁매우	-9.72899
▁시설	-9.72945
▁December	-9.73026
▁running	-9.73298
▁War	-9.73351
▁search	-9.73355
▁quite	-9.73363
▁face	-9.73551
▁write	-9.73561
▁late	-9.73577
▁groups	-9.7359
면서	-9.73639
▁상품	-9.73641
▁usually	-9.73717
보	-9.73767
▁pay	-9.73787
▁learn	-9.73877
▁British	-9.73914
란	-9.73927
▁increase	-9.73936
박	-9.73968
하	-9.73996
▁String	-9.74174
Q	-9.7418
해서	-9.74215
▁되는	-9.74232
▁likely	-9.7436
▁step	-9.74451
of	-9.745
▁역	-9.74587
▁세	-9.74706
));	-9.74778
▁currently	-9.74983
점	-9.75003
▁education	-9.75014
▁production	-9.75087
▁center	-9.75213
▁positive	-9.75228
▁risk	-9.75266
▁더욱	-9.75283
▁region	-9.75395
▁알	-9.75407
▁related	-9.75439
▁pre	-9.75518
▁human	-9.75611
당	-9.75689
▁Then	-9.75749
▁시간	-9.75813
it	-9.75813
▁다음	-9.75937
부산	-9.75939
트	-9.76149
▁Re	-9.76341
▁term	-9.76364
▁amount	-9.7641
▁began	-9.76418
▁나는	-9.76607
▁art	-9.76653
될	-9.76694
▁지원	-9.76773
▁length	-9.76866
▁normal	-9.76905
▁대	-9.76927
List	-9.76942
▁물론	-9.77004
▁인	-9.77081
▁potential	-9.77098
▁address	-9.7741
▁continue	-9.77517
▁led	-9.77627
▁seems	-9.77657
현	-9.77717
▁designed	-9.77787
▁February	-9.77895
▁strong	-9.77943
▁->	-9.77959
▁이어	-9.77984
▁user	-9.78015
▁pretty	-9.78064
▁station	-9.78148
▁heart	-9.78151
▁수도	-9.78193
▁주요	-9.78201
▁·	-9.78241
▁League	-9.78254
▁고	-9.78371
▁km	-9.78398
▁하	-9.7847
▁hope	-9.78546
code	-9.78649
off	-9.78661
▁song	-9.78702
▁hit	-9.78774
▁Not	-9.78807
▁natural	-9.78814
▁추가	-9.78892
실	-9.78969
했습니다	-9.79015
단	-9.79083
▁follow	-9.79134
new	-9.79257
▁해당	-9.79274
▁death	-9.79421
▁보고	-9.79505
▁w	-9.79524
▁California	-9.7961
▁London	-9.79667
▁procedure	-9.79692
▁named	-9.79756
▁playing	-9.79963
▁disease	-9.8001
▁따르면	-9.80051
▁rest	-9.80073
되고	-9.80281
▁z	-9.80392
▁release	-9.804
▁additional	-9.80528
!!	-9.80552
▁writing	-9.80573
▁Day	-9.80639
▁reading	-9.80666
▁takes	-9.80682
관	-9.80723
▁article	-9.80891
▁outside	-9.80899
▁온라인	-9.80997
▁self	-9.81012
▁previous	-9.81014
▁이야기	-9.81061
▁Let	-9.81101
▁Street	-9.81193
▁나	-9.81202
▁recently	-9.81241
▁red	-9.81277
▁unique	-9.81282
▁etc	-9.81296
op	-9.8138
▁simply	-9.81387
치	-9.81412
▁Co	-9.81421
ie	-9.81444
년에	-9.8153
▁worked	-9.81565
▁multiple	-9.81618
▁coming	-9.81657
▁interest	-9.8173
▁note	-9.81982
▁title	-9.81988
▁package	-9.81998
▁matter	-9.8201
▁behind	-9.82033
▁date	-9.82042
▁stop	-9.82176
유	-9.82331
▁forward	-9.82402
마	-9.82456
▁결과	-9.82467
Array	-9.82482
];	-9.82609
▁미	-9.82645
▁bring	-9.82696
▁뒤	-9.82765
▁기술	-9.82814
src	-9.82871
▁(%	-9.82889
▁details	-9.82994
▁mind	-9.83011
▁instead	-9.83091
▁analysis	-9.83259
▁word	-9.83427
종	-9.83653
모	-9.83698
▁deal	-9.83839
▁everyone	-9.83876
▁가지고	-9.83957
▁President	-9.84225
군	-9.84271
▁최대	-9.84327
▁건	-9.84337
at	-9.84351
▁international	-9.84394
▁digitalWrite	-9.84435
▁party	-9.84446
▁living	-9.84449
▁associated	-9.8445
if	-9.84494
▁reason	-9.84529
▁wanted	-9.84587
▁account	-9.8463
▁Is	-9.84646
Text	-9.84646
」	-9.84678
▁II	-9.8472
▁그의	-9.8475
▁사람	-9.84865
▁asked	-9.84966
▁Department	-9.8503
▁considered	-9.8508
▁Of	-9.85121
▁가지	-9.85182
▁string	-9.85263
Boolean	-9.85302
▁Mr	-9.8536
▁error	-9.85449
▁blood	-9.85591
▁프로그램	-9.8561
ID	-9.85694
▁그런	-9.8575
▁allow	-9.85792
based	-9.85868
▁이에	-9.85887
▁cut	-9.85905
▁review	-9.85926
▁football	-9.86021
▁David	-9.86064
▁buy	-9.86078
안	-9.86102
▁soon	-9.86126
▁board	-9.8617
▁location	-9.86294
▁stage	-9.86306
▁showed	-9.86324
▁throughout	-9.86328
▁particular	-9.86452
▁network	-9.86571
▁당시	-9.86624
▁운영	-9.86633
▁effect	-9.86849
▁significant	-9.86878
▁inside	-9.86892
▁됩니다	-9.86925
▁customers	-9.86987
▁established	-9.87041
▁conditions	-9.87056
▁approach	-9.87112
▁shown	-9.87123
▁store	-9.87171
▁필요한	-9.87253
▁popular	-9.87283
▁track	-9.87367
▁leading	-9.87444
석	-9.87462
▁web	-9.87545
서울	-9.87679
▁isn	-9.87745
▁cause	-9.87851
▁역시	-9.8787
지만	-9.88074
▁words	-9.88102
▁medical	-9.88171
▁meet	-9.88229
▁lost	-9.88263
▁새	-9.8836
▁박	-9.88385
▁Friday	-9.88546
▁La	-9.88566
old	-9.88625
길	-9.88634
▁build	-9.88637
▁Group	-9.88641
▁지	-9.88801
▁다운로드	-9.88808
▁constant	-9.88823
▁아닌	-9.88842
▁nothing	-9.88976
▁display	-9.89117
][	-9.89203
▁사진	-9.89211
▁served	-9.89318
▁protected	-9.89367
▁loss	-9.89429
local	-9.89476
▁만남	-9.89702
▁사	-9.89721
pi	-9.89807
▁certain	-9.89887
▁몇	-9.90041
▁하나	-9.90097
▁message	-9.90124
▁growth	-9.9022
국	-9.90439
▁De	-9.90492
거나	-9.90524
더	-9.90537
▁이렇게	-9.90551
▁bad	-9.90673
▁expected	-9.90748
▁although	-9.90814
)$	-9.9082
▁link	-9.90847
▁내가	-9.90899
▁couple	-9.90916
var	-9.90932
by	-9.90948
▁goal	-9.9099
▁success	-9.91059
▁Also	-9.91062
▁student	-9.91064
▁관한	-9.91171
▁이미	-9.91234
▁object	-9.91238
▁u	-9.91284
계	-9.91296
▁sound	-9.9139
AVX	-9.91395
▁phone	-9.91398
】	-9.91528
▁People	-9.91583
▁cannot	-9.91585
▁Since	-9.91601
▁books	-9.91635
▁조	-9.91683
▁db	-9.9179
▁skin	-9.91792
▁longer	-9.91811
▁ways	-9.91947
▁summer	-9.91965
▁그래서	-9.92058
nd	-9.92071
이었다	-9.92133
파	-9.92136
▁programs	-9.92174
▁levels	-9.92214
▁involved	-9.9223
토	-9.92242
문	-9.92279
out	-9.92451
▁oil	-9.92485
am	-9.92502
무	-9.92535
▁items	-9.92567
▁individual	-9.92721
강	-9.93018
▁stay	-9.93136
내	-9.93248
▁여성	-9.93274
거	-9.93292
번	-9.93383
cm	-9.93468
▁receive	-9.93478
개의	-9.93587
▁language	-9.93614
▁가운데	-9.93665
▁오후	-9.93692
▁performed	-9.93722
▁East	-9.93727
▁Get	-9.9377
▁정말	-9.93786
▁options	-9.93833
▁있다고	-9.93892
▁developed	-9.93959
▁practice	-9.93998
▁Can	-9.94081
net	-9.94258
▁users	-9.943
▁road	-9.9433
▁entire	-9.94393
▁character	-9.94503
▁Washington	-9.94517
▁History	-9.94535
했던	-9.94536
▁장	-9.94607
금	-9.94625
▁랜드	-9.94626
▁gives	-9.94649
▁collection	-9.94724
▁beautiful	-9.94745
▁financial	-9.94746
▁computer	-9.94795
ness	-9.94861
▁leave	-9.94909
영	-9.94942
▁speed	-9.94999
▁강	-9.95004
역	-9.95063
▁blog	-9.95103
출장마사지	-9.95123
▁choose	-9.95124
▁THE	-9.95205
▁올해	-9.95276
▁Just	-9.95294
▁material	-9.95359
▁itself	-9.95362
▁OF	-9.95401
엔	-9.95416
〔	-9.95477
〕	-9.95491
▁중요한	-9.95557
▁General	-9.9566
재	-9.95703
▁double	-9.95728
▁개발	-9.9585
▁item	-9.95955
경	-9.95979
▁anyone	-9.95987
▁card	-9.96011
▁Saturday	-9.9613
▁global	-9.96202
만원	-9.96234
de	-9.96249
▁License	-9.96321
▁upon	-9.96342
▁unit	-9.96411
되었다	-9.96612
▁cover	-9.96644
▁option	-9.96832
▁기업	-9.96845
▁override	-9.96957
▁nice	-9.97013
▁일부	-9.97017
“	-9.97043
▁때문이다	-9.97082
▁Or	-9.97092
▁UK	-9.97143
content	-9.97179
▁sense	-9.97189
▁이는	-9.97274
▁Don	-9.97291
▁enjoy	-9.97312
▁Association	-9.97459
배	-9.97597
▁Free	-9.97638
▁평균	-9.97713
▁날	-9.97907
▁consider	-9.9796
▁PM	-9.97967
▁!=	-9.97977
▁kids	-9.98007
▁wide	-9.98008
display	-9.98079
▁이날	-9.98101
▁studies	-9.98143
▁관리	-9.9817
Id	-9.98289
▁보면	-9.9829
▁먼저	-9.98333
▁send	-9.98343
▁looks	-9.98433
▁바랍니다	-9.98443
▁Red	-9.98559
▁focus	-9.98577
ton	-9.98651
▁security	-9.98712
▁Be	-9.98718
ity	-9.98737
▁List	-9.98737
▁son	-9.98748
▁국가	-9.98778
▁opportunity	-9.98965
▁states	-9.99067
▁PC	-9.9907
였다	-9.99083
▁지난해	-9.99098
▁ground	-9.99165
▁parts	-9.9926
▁연구	-9.99293
▁described	-9.99305
▁pressure	-9.99389
▁쉽게	-9.99484
카지노사이트	-9.99532
▁feature	-9.99607
▁국제	-9.99628
▁talk	-9.99724
▁response	-9.99823
강원	-9.99839
▁saw	-9.99882
▁Canada	-9.99899
▁cell	-9.99903
▁좀	-9.99977
이라	-10
▁app	-10
▁의해	-10.0007
▁club	-10.0018
▁여행	-10.0023
초	-10.0037
▁weight	-10.0038
▁choice	-10.0039
field	-10.0041
노	-10.0045
ia	-10.0052
▁lines	-10.0053
▁가능한	-10.0062
▁마사지	-10.0066
코	-10.0069
디	-10.0072
▁지금	-10.0083
▁equation	-10.009
▁ask	-10.0095
▁save	-10.0101
《	-10.0104
▁Google	-10.0117
▁fig	-10.0128
▁가능	-10.0138
▁allows	-10.0139
▁difference	-10.014
▁사람이	-10.0143
▁전체	-10.0144
▁cells	-10.015
▁Sunday	-10.0151
▁born	-10.0156
▁계속	-10.0159
▁match	-10.016
드	-10.0162
▁difficult	-10.0164
▁starting	-10.0171
▁extra	-10.0179
▁ready	-10.018
▁schools	-10.018
‘	-10.0182
▁latest	-10.0182
▁서	-10.0199
『	-10.0206
▁Black	-10.021
후	-10.0213
▁goes	-10.0224
▁유	-10.024
sqrt	-10.0258
등	-10.0262
▁variety	-10.0264
▁learning	-10.0267
▁sales	-10.0268
▁만들어	-10.0273
▁온	-10.0274
▁map	-10.0275
▁Most	-10.0276
▁meeting	-10.0285
연	-10.029
▁morning	-10.0297
▁decision	-10.0298
▁저	-10.0299
▁China	-10.0304
▁작은	-10.033
▁wrote	-10.0332
▁round	-10.0332
")	-10.0346
포	-10.0352
▁activities	-10.0354
▁외부	-10.0364
▁knowledge	-10.0378
▁environment	-10.0379
born	-10.0383
▁있지만	-10.0384
▁easily	-10.0386
▁surface	-10.0386
▁political	-10.0387
▁input	-10.0387
add	-10.0394
▁drive	-10.0396
▁James	-10.0403
▁구	-10.0412
▁되어	-10.0413
▁chance	-10.042
land	-10.0421
▁인터넷	-10.0423
▁structure	-10.0424
▁box	-10.0427
▁News	-10.0428
▁friend	-10.043
▁없습니다	-10.043
▁줄	-10.0431
▁Paul	-10.0431
▁대한민국의	-10.0431
val	-10.0433
▁River	-10.0437
▁gave	-10.0445
▁announced	-10.0449
for	-10.045
▁television	-10.045
별	-10.0455
▁무	-10.0461
▁되었다	-10.0468
▁선수	-10.0469
남	-10.0469
▁사업	-10.0471
▁French	-10.0474
(\	-10.0474
▁regular	-10.0484
간	-10.0485
▁moved	-10.0491
대구	-10.0499
▁India	-10.0499
▁크게	-10.0502
ist	-10.0505
됐다	-10.0509
했고	-10.0516
▁Windows	-10.0528
타	-10.0531
▁district	-10.0533
▁Home	-10.0543
▁Road	-10.0551
▁여자	-10.0551
▁Hotel	-10.0553
▁것도	-10.0553
발	-10.0555
▁대표	-10.0556
▁decided	-10.0561
▁시장	-10.0563
질	-10.0566
▁fit	-10.0572
▁Michael	-10.0576
▁인해	-10.0579
민	-10.0582
▁tax	-10.0583
집	-10.059
바	-10.0599
▁effective	-10.0606
급	-10.0607
▁Monday	-10.0608
▁White	-10.0614
▁Public	-10.0623
▁produced	-10.0629
▁들어	-10.0642
▁sign	-10.065
▁zero	-10.065
천안	-10.0653
하거나	-10.0665
▁teams	-10.0665
▁print	-10.0666
TV	-10.0667
▁director	-10.0675
▁검색	-10.0678
▁setup	-10.069
▁died	-10.0696
Value	-10.0697
ism	-10.0698
【	-10.0703
less	-10.0711
▁land	-10.0714
▁increased	-10.0731
▁directly	-10.0735
▁문	-10.0735
▁happy	-10.0739
▁Australia	-10.074
width	-10.0743
▁Inc	-10.0747
▁subject	-10.075
▁favorite	-10.0766
▁images	-10.0767
▁degree	-10.0771
▁college	-10.0782
▁quickly	-10.0783
시출장샵	-10.0791
▁정보를	-10.0795
▁fast	-10.0803
네	-10.0808
방	-10.0818
▁lives	-10.0822
▁pain	-10.0824
▁Other	-10.0827
▁어느	-10.0828
▁output	-10.083
두	-10.0835
적으로	-10.0836
▁Texas	-10.084
▁initial	-10.0843
▁types	-10.0846
▁경제	-10.0846
▁왜	-10.0867
▁screen	-10.0867
▁complex	-10.087
▁distance	-10.0873
one	-10.0896
▁공급	-10.0897
▁force	-10.0897
▁단	-10.0898
▁바카라	-10.0901
▁projects	-10.0904
백	-10.0907
▁defined	-10.0907
▁During	-10.0908
▁parents	-10.0909
],	-10.0912
▁yourself	-10.0917
▁Best	-10.0917
){	-10.0921
▁ensure	-10.0931
▁축구	-10.0932
▁못	-10.0942
▁분석	-10.0944
티	-10.0946
▁distribution	-10.0946
arg	-10.0947
▁police	-10.0949
▁걸	-10.0951
▁Club	-10.0954
▁ability	-10.0957
▁q	-10.0967
century	-10.0968
▁primary	-10.0971
▁간	-10.098
son	-10.0993
▁District	-10.1
▁president	-10.1006
▁green	-10.101
▁fire	-10.1011
▁정도	-10.1011
▁Council	-10.1016
▁부	-10.1018
▁effects	-10.1019
▁않습니다	-10.1019
▁click	-10.1032
▁necessary	-10.1047
▁성	-10.1057
▁기준	-10.1057
▁hold	-10.1058
▁presented	-10.1058
▁오는	-10.1066
▁Great	-10.1066
▁사람들이	-10.1074
▁사회	-10.1081
▁경기	-10.1084
▁Music	-10.1085
▁policy	-10.1095
▁ideas	-10.1096
▁movie	-10.1103
▁일반	-10.1103
▁father	-10.1108
▁whose	-10.1108
▁한편	-10.1114
▁Church	-10.1116
▁Cup	-10.1121
▁저렴한	-10.1122
▁limited	-10.1122
▁countries	-10.1123
▁노	-10.1128
▁Service	-10.1128
▁modern	-10.1133
▁anti	-10.1142
▁처음	-10.1142
반	-10.115
▁sent	-10.1152
pm	-10.1156
▁radio	-10.1157
〉	-10.1158
▁interesting	-10.1158
조건	-10.1171
학	-10.1188
}$$	-10.1192
▁Thanks	-10.1193
▁기본	-10.1195
▁target	-10.1196
▁gas	-10.1196
▁글로벌	-10.1199
▁impact	-10.1206
▁England	-10.1208
한국	-10.121
dst	-10.1223
▁update	-10.1233
▁sites	-10.1236
교육	-10.1258
▁followed	-10.1261
▁copy	-10.1268
('	-10.1269
day	-10.127
▁plans	-10.128
▁physical	-10.1281
▁Art	-10.1281
log	-10.1295
▁seven	-10.1298
▁themselves	-10.1298
item	-10.1299
▁fall	-10.1306
▁expect	-10.1307
▁대한민국	-10.1314
▁양	-10.1314
▁male	-10.132
▁Mar	-10.1324
▁업체	-10.1336
▁solutions	-10.1349
▁hot	-10.1362
▁이제	-10.1366
},	-10.1368
list	-10.1368
▁wrong	-10.137
▁films	-10.137
마사지	-10.1376
▁서비스를	-10.1376
▁개인	-10.1393
▁브랜드	-10.1393
▁IT	-10.1401
▁△	-10.1403
▁active	-10.1407
▁models	-10.1411
▁construction	-10.1418
▁거의	-10.142
▁전략	-10.1429
온	-10.1429
▁successful	-10.1435
▁해외	-10.1438
▁improve	-10.1441
▁coach	-10.1442
▁condition	-10.1442
▁European	-10.1443
▁초	-10.145
▁Health	-10.146
온라인	-10.1461
▁판매	-10.1467
▁author	-10.1472
▁ret	-10.1481
▁Me	-10.1484
rd	-10.1487
▁woman	-10.1487
▁Last	-10.149
▁cancer	-10.1496
▁completely	-10.1498
▁uses	-10.1504
▁contains	-10.1512
▁multi	-10.152
▁century	-10.1524
▁Air	-10.1524
▁기타	-10.1535
▁charge	-10.1538
이고	-10.1542
▁반	-10.1543
▁Why	-10.156
▁부산	-10.1562
▁functions	-10.1574
출장업소	-10.1575
▁차	-10.1577
▁highly	-10.158
▁sometimes	-10.1583
▁예약	-10.1588
▁번	-10.1589
▁mother	-10.159
▁travel	-10.1597
▁statement	-10.1598
▁photo	-10.1601
▁rights	-10.1609
ch	-10.1614
그	-10.1617
▁skills	-10.1623
▁위	-10.1623
카	-10.1633
▁OR	-10.1638
▁customer	-10.1638
▁device	-10.164
▁expression	-10.164
▁문제	-10.1643
▁organization	-10.1646
%)	-10.1646
▁credit	-10.1646
▁giving	-10.1655
물	-10.1657
▁war	-10.1659
▁daily	-10.1665
▁진행	-10.1668
〖	-10.167
Button	-10.167
rs	-10.1672
▁Hall	-10.1672
▁Al	-10.1683
〗	-10.1693
▁최고의	-10.17
▁Go	-10.1709
▁산	-10.1711
▁digital	-10.1716
▁tried	-10.1726
▁largest	-10.1728
▁exactly	-10.1733
ion	-10.1739
함	-10.174
view	-10.174
`	-10.174
▁race	-10.1743
▁wife	-10.1752
▁글	-10.1757
▁TO	-10.176
▁piece	-10.1761
▁reports	-10.1765
▁cross	-10.1767
▁star	-10.1768
▁Green	-10.1769
▁Data	-10.1771
▁temperature	-10.1781
▁compared	-10.1785
▁최고	-10.1787
청	-10.1796
▁King	-10.1803
▁fine	-10.1811
▁attention	-10.1812
▁button	-10.1814
▁bar	-10.1816
이란	-10.1825
▁같다	-10.1827
되지	-10.1835
▁changed	-10.1837
▁마	-10.1841
개월	-10.1849
▁picture	-10.1851
▁소	-10.1857
▁확인	-10.1859
▁cmp	-10.1859
▁Math	-10.1872
Index	-10.1877
▁Time	-10.1888
▁Thursday	-10.189
▁court	-10.1908
뉴스	-10.1909
▁링크	-10.191
▁+=	-10.1913
▁finally	-10.1914
▁places	-10.1927
일부터	-10.193
레	-10.1931
all	-10.1932
▁species	-10.1935
▁providing	-10.1943
▁Number	-10.1946
key	-10.1946
ui	-10.195
▁속	-10.1958
▁Tuesday	-10.1964
▁Jan	-10.1969
안마	-10.1973
▁pass	-10.198
▁direct	-10.1984
▁실제	-10.1986
양	-10.1989
▁spent	-10.1989
▁wall	-10.1991
▁오늘	-10.1993
un	-10.1994
Class	-10.1994
State	-10.1999
▁direction	-10.2001
▁먹튀	-10.2004
▁client	-10.2011
▁brand	-10.2012
▁객실	-10.2013
▁받고	-10.2017
▁index	-10.2023
▁completed	-10.2026
김	-10.203
▁himself	-10.203
▁Her	-10.2032
▁Man	-10.2032
▁eye	-10.2041
▁comment	-10.2045
▁thus	-10.2046
":"	-10.206
▁사실	-10.2063
▁relationship	-10.2064
▁전문	-10.2078
▁overall	-10.2086
▁`	-10.2089
사진	-10.2092
read	-10.2099
▁official	-10.2104
▁saying	-10.211
▁Company	-10.2113
▁seem	-10.2118
▁/*	-10.2119
즈	-10.2121
▁theory	-10.2123
▁꼭	-10.2124
▁만큼	-10.213
▁tree	-10.2136
▁path	-10.2139
▁larger	-10.214
에서도	-10.2143
▁safety	-10.2145
▁gets	-10.2145
▁Many	-10.2148
▁costs	-10.2148
▁apply	-10.2152
히	-10.2156
▁status	-10.2158
▁science	-10.2161
state	-10.2162
Time	-10.2163
▁IS	-10.2169
▁Facebook	-10.2171
▁전국	-10.2175
▁Two	-10.2183
▁elements	-10.2184
▁AM	-10.2187
▁closed	-10.219
▁files	-10.219
▁wait	-10.2197
▁evidence	-10.2198
▁moment	-10.2198
층	-10.2201
▁German	-10.2209
▁코로나	-10.2213
판	-10.222
la	-10.222
▁heat	-10.2228
▁therefore	-10.2233
▁공식	-10.2235
▁beginning	-10.2235
▁문화	-10.2235
true	-10.2236
카톡	-10.2237
▁있는데	-10.2243
▁campaign	-10.2249
▁o	-10.2252
▁www	-10.2253
▁Year	-10.2259
▁middle	-10.226
▁comments	-10.2261
▁resources	-10.2262
▁equal	-10.2263
▁George	-10.2264
▁param	-10.2265
▁moving	-10.2269
▁correct	-10.227
▁Wednesday	-10.2272
▁번째	-10.2279
▁ball	-10.2282
▁eight	-10.2284
▁negative	-10.2284
▁따라서	-10.2291
▁Office	-10.2299
▁earlier	-10.2301
정보	-10.2317
▁activity	-10.2317
▁methods	-10.2328
▁있게	-10.233
피	-10.2332
ation	-10.2335
▁applications	-10.2338
▁hair	-10.2339
▁central	-10.234
▁결국	-10.234
rax	-10.2345
▁법	-10.2347
▁opened	-10.2348
Set	-10.2352
▁우리가	-10.2353
▁traditional	-10.2357
▁Well	-10.236
▁According	-10.2363
▁reach	-10.2364
▁clinical	-10.2377
론	-10.2381
▁interested	-10.2381
$.	-10.2383
▁shot	-10.2387
릴	-10.239
됩니다	-10.2392
▁develop	-10.2405
▁nearly	-10.2406
▁아니다	-10.2407
▁clean	-10.2408
▁watch	-10.2409
▁equipment	-10.2426
포커	-10.2437
▁알고	-10.2442
▁하지	-10.2445
루	-10.2447
▁worth	-10.2447
▁True	-10.2452
▁System	-10.2456
▁runs	-10.2461
ne	-10.2478
▁역사	-10.2487
▁Europe	-10.249
▁Read	-10.2491
▁Institute	-10.2491
습니다	-10.2498
▁cm	-10.25
▁materials	-10.2501
▁물	-10.2502
▁가진	-10.2507
▁allowed	-10.2508
▁설치	-10.251
▁nature	-10.2516
▁safe	-10.252
▁wasn	-10.252
▁선택	-10.2522
▁floor	-10.2527
▁Court	-10.2531
▁hotel	-10.2537
▁array	-10.254
▁mul	-10.2543
▁brought	-10.2544
▁그런데	-10.2547
봉	-10.2554
▁mode	-10.2556
▁전에	-10.2559
▁properties	-10.2559
된다	-10.2559
▁오전	-10.2562
▁카지노사이트	-10.257
▁리뷰	-10.2574
▁Life	-10.2575
▁Research	-10.2576
▁useful	-10.2577
▁Pro	-10.258
준	-10.2582
▁blue	-10.2591
▁finished	-10.2594
만남	-10.2602
▁따른	-10.2603
공	-10.2605
▁remember	-10.2614
▁sample	-10.2619
▁basis	-10.2624
▁bottom	-10.2624
▁myself	-10.2626
▁factor	-10.263
▁purchase	-10.2639
▁rules	-10.2646
▁기존	-10.2649
▁sold	-10.2663
▁Lake	-10.2665
▁구매	-10.2671
▁block	-10.2674
▁받은	-10.2676
▁투자	-10.2676
▁Award	-10.2681
▁pick	-10.2681
▁births	-10.2683
→	-10.2687
®	-10.269
▁정부	-10.2691
▁goals	-10.2692
▁Internet	-10.2709
▁Web	-10.2716
▁sig	-10.2717
▁안내	-10.2717
▁스포츠	-10.2728
▁posted	-10.273
▁military	-10.2734
▁church	-10.2735
▁Bay	-10.2736
▁fully	-10.2737
▁배우	-10.2738
▁variable	-10.2738
▁mobile	-10.2741
▁Even	-10.2745
▁Obama	-10.2749
▁달	-10.2751
height	-10.2752
관리	-10.2757
▁hour	-10.2761
▁huge	-10.2762
go	-10.2765
▁등에	-10.2767
▁hands	-10.2778
▁tools	-10.2779
▁보다	-10.2785
▁일이	-10.2787
태	-10.2787
▁디자인	-10.2791
</	-10.2792
▁제작	-10.2793
na	-10.2795
▁economic	-10.2799
▁independent	-10.28
▁Each	-10.2808
행	-10.2811
write	-10.2816
▁weekend	-10.2818
min	-10.2825
ian	-10.2828
▁returned	-10.2833
▁situation	-10.2838
▁생산	-10.2846
▁시작	-10.285
출장부르는법	-10.2852
무료	-10.2858
▁Open	-10.2863
▁숙박	-10.2864
▁Business	-10.2864
▁selected	-10.2872
▁walk	-10.2877
▁square	-10.2881
▁annual	-10.2883
▁사용할	-10.2884
▁window	-10.2889
순	-10.2893
ley	-10.2893
▁require	-10.2898
임	-10.29
키	-10.2907
일까지	-10.2908
▁도시	-10.2921
▁count	-10.2921
▁uint	-10.2923
▁turned	-10.2923
▁Science	-10.2924
not	-10.2927
▁Florida	-10.2929
▁stars	-10.2931
▁entry	-10.2932
▁id	-10.2941
▁north	-10.2942
▁Board	-10.2948
▁clients	-10.2955
html	-10.2957
▁Love	-10.2959
돼	-10.2963
If	-10.2963
▁village	-10.2964
랑	-10.2969
do	-10.2972
▁보	-10.2974
▁basic	-10.2975
▁legal	-10.2977
▁공장	-10.2977
▁Post	-10.298
ry	-10.2981
▁feet	-10.2981
▁thinking	-10.2985
▁songs	-10.2986
▁Press	-10.2987
▁produce	-10.2988
▁Although	-10.2989
▁culture	-10.2992
▁Check	-10.2993
▁포커	-10.2998
모텔	-10.3001
▁미국의	-10.3003
▁scale	-10.3004
▁background	-10.3005
명의	-10.3016
▁Education	-10.3018
▁matrix	-10.302
▁자	-10.3022
null	-10.3026
▁families	-10.3027
ar	-10.3029
You	-10.3036
▁remove	-10.3042
▁않았다	-10.3044
▁Mark	-10.305
저	-10.3054
um	-10.3056
my	-10.3056
▁request	-10.3059
▁deep	-10.3064
▁선	-10.3074
▁모바일	-10.3079
세기	-10.3081
▁문제가	-10.3086
▁hear	-10.3086
이자	-10.309
▁marketing	-10.3095
▁trip	-10.3106
▁예정이다	-10.3109
▁sports	-10.3112
▁characters	-10.3116
▁machine	-10.3116
▁server	-10.3119
▁continued	-10.312
input	-10.3121
▁insurance	-10.3122
▁영향을	-10.3125
린	-10.3126
▁vs	-10.3129
▁리	-10.313
▁cap	-10.3132
온라인카지노	-10.3134
▁즉	-10.3139
▁올	-10.314
▁않을	-10.3141
출장	-10.3142
el	-10.3143
▁fans	-10.3155
▁growing	-10.3159
▁LED	-10.3164
▁photos	-10.3167
▁대학	-10.3168
load	-10.3169
with	-10.317
▁upper	-10.3171
▁stories	-10.3175
▁setting	-10.3185
▁excellent	-10.3193
▁위치한	-10.3197
λ	-10.3198
▁char	-10.32
▁download	-10.3208
철	-10.321
▁heard	-10.3213
alpha	-10.3219
▁Island	-10.3221
sin	-10.3222
▁module	-10.3227
▁benefits	-10.3231
Error	-10.3235
▁Use	-10.3237
▁시스템	-10.3239
약	-10.3244
▁재	-10.3245
는데	-10.3246
▁열린	-10.3252
▁만든	-10.3256
▁가족	-10.3256
▁우리의	-10.3256
▁하면	-10.3257
▁towards	-10.3261
sum	-10.3261
▁시간을	-10.3266
te	-10.3266
▁Big	-10.3268
▁않는다	-10.3282
들과	-10.3283
os	-10.3289
▁hospital	-10.3291
▁최	-10.3292
▁greater	-10.3294
▁분	-10.3294
▁Canadian	-10.3297
▁score	-10.3305
ies	-10.3306
▁피	-10.3306
▁외	-10.3312
▁Once	-10.3317
▁Australian	-10.332
씨	-10.3321
ra	-10.3329
▁amazing	-10.333
인데	-10.3331
▁stuff	-10.3334
▁felt	-10.3335
▁stock	-10.3343
▁Christmas	-10.3369
▁limit	-10.338
▁highest	-10.3383
▁format	-10.3383
▁자동차	-10.3384
▁중앙일보	-10.3389
▁volume	-10.3393
ta	-10.3394
▁la	-10.3398
▁south	-10.3399
크	-10.3401
▁element	-10.3407
like	-10.3411
▁gold	-10.3416
▁조건	-10.3419
▁sale	-10.3421
No	-10.3424
▁revealed	-10.3425
▁prior	-10.3429
「	-10.3429
▁appear	-10.3431
▁reduce	-10.3431
▁serve	-10.3443
불	-10.3443
▁Central	-10.3447
▁Robert	-10.3453
▁prices	-10.3454
▁particularly	-10.3457
심	-10.3458
ling	-10.3466
▁mid	-10.3476
▁남자	-10.3476
본	-10.3477
▁Find	-10.3489
광주	-10.3508
▁모	-10.351
▁고객	-10.3512
목	-10.3518
▁Foundation	-10.3521
▁opening	-10.3524
▁아주	-10.3526
▁planning	-10.3528
rdx	-10.3534
▁obtained	-10.3535
▁commercial	-10.3535
▁door	-10.3535
▁placed	-10.354
▁∀	-10.3541
▁Note	-10.3543
▁surgery	-10.3547
▁federal	-10.3547
event	-10.3549
▁host	-10.3555
▁Party	-10.3557
▁stand	-10.3558
times	-10.3563
▁개	-10.3567
▁남	-10.358
▁rates	-10.3581
li	-10.3587
▁Society	-10.359
체	-10.3592
▁Chicago	-10.3593
로서	-10.3595
▁presence	-10.3596
▁Top	-10.3604
events	-10.3604
▁모습을	-10.3617
▁cool	-10.3619
▁factors	-10.3622
rbx	-10.3624
▁백	-10.3627
▁default	-10.3629
▁그렇게	-10.363
▁effort	-10.3631
age	-10.3631
▁ones	-10.3634
▁showing	-10.3651
▁previously	-10.3654
▁IF	-10.366
▁Apple	-10.3667
gen	-10.3669
▁역할을	-10.3675
▁trade	-10.3678
▁fresh	-10.3678
▁joined	-10.3685
▁pinMode	-10.3689
▁방송	-10.3692
index	-10.3694
▁Smith	-10.3705
normal	-10.3715
▁Good	-10.3722
▁daughter	-10.3727
명이	-10.3729
▁manager	-10.3729
교	-10.373
대전	-10.3731
▁individuals	-10.3733
▁동시에	-10.3733
▁pages	-10.3739
▁시간이	-10.3745
▁creating	-10.3746
▁Super	-10.3751
러	-10.3757
▁뉴스	-10.3762
▁tool	-10.3766
▁제가	-10.3773
▁시즌	-10.3776
bar	-10.3779
▁maybe	-10.3784
▁학교	-10.3788
로부터	-10.3791
▁views	-10.3793
▁join	-10.3794
▁온라인카지노	-10.3796
▁되고	-10.3798
me	-10.3801
test	-10.3804
max	-10.3808
▁대상으로	-10.3808
▁rock	-10.3812
File	-10.3815
rbp	-10.3816
ᆞ	-10.3819
근	-10.3831
▁Services	-10.3835
▁signed	-10.3837
▁immediately	-10.3841
▁자기	-10.3842
Item	-10.3853
▁offered	-10.3862
▁happen	-10.3862
▁shape	-10.3865
▁도움이	-10.387
▁디지털	-10.3875
▁determine	-10.3878
▁library	-10.3878
Vector	-10.3878
▁act	-10.3881
▁damage	-10.3883
led	-10.3884
map	-10.3889
▁billion	-10.389
▁Indian	-10.3893
▁height	-10.3896
▁quick	-10.3903
▁카페	-10.3914
▁보는	-10.3917
Info	-10.3921
?"	-10.3922
▁IN	-10.3934
▁reference	-10.3938
LOAD	-10.3948
▁있기	-10.3948
▁음악	-10.3949
▁helps	-10.395
▁발	-10.3952
▁frame	-10.3955
cos	-10.3962
▁appeared	-10.3964
승	-10.397
▁contract	-10.3975
++)	-10.3978
color	-10.3981
▁일을	-10.3985
▁camera	-10.3988
▁understanding	-10.4003
▁당	-10.4005
▁France	-10.401
▁안전	-10.4019
▁beyond	-10.402
▁Add	-10.4024
▁하루	-10.4024
▁xor	-10.4029
▁instance	-10.403
▁units	-10.4032
전주	-10.4034
▁met	-10.4036
▁press	-10.4036
▁아이	-10.4038
▁pin	-10.4038
억원	-10.4038
▁기간	-10.4039
희	-10.404
::	-10.4041
▁memory	-10.4042
프	-10.4045
▁등록	-10.4053
▁switch	-10.4053
false	-10.4058
▁다음과	-10.406
▁종류	-10.406
▁»	-10.4062
▁draw	-10.4067
▁wish	-10.4069
▁maximum	-10.4072
▁인기	-10.4072
▁plus	-10.4078
▁해야	-10.4082
▁있어서	-10.4082
▁Blue	-10.4082
▁employees	-10.4089
mathbb	-10.4089
▁Type	-10.409
▁finish	-10.4098
Test	-10.4101
▁난	-10.4103
▁William	-10.4104
▁Next	-10.4105
▁handle	-10.4105
▁diagnosis	-10.4112
▁command	-10.4117
▁Los	-10.412
▁산업	-10.4122
▁helped	-10.4126
▁Today	-10.413
▁Are	-10.4131
▁flow	-10.4134
ca	-10.4137
▁parameter	-10.4139
▁remains	-10.4142
▁받아	-10.415
▁원하는	-10.4151
da	-10.4151
▁selection	-10.4152
▁operation	-10.4154
▁observed	-10.4158
▁Twitter	-10.4159
▁정책	-10.4159
지는	-10.4159
▁pattern	-10.416
출장서비스	-10.4162
▁drug	-10.4166
▁참	-10.4167
출장가격	-10.4169
▁miles	-10.4169
▁손	-10.4171
▁각종	-10.4173
Message	-10.4174
▁제대로	-10.4178
▁교수	-10.4179
▁기	-10.4183
▁random	-10.4184
▁Act	-10.4198
▁responsible	-10.4203
▁Japan	-10.4208
▁방	-10.422
▁businesses	-10.4222
▁election	-10.423
▁generally	-10.4231
▁firm	-10.4232
▁Posted	-10.4234
▁데이터	-10.4237
▁타	-10.4238
▁eyes	-10.424
men	-10.4243
▁budget	-10.4247
▁names	-10.4249
▁활동	-10.4249
▁아직	-10.4252
▁Star	-10.4257
▁caused	-10.4259
년부터	-10.426
▁critical	-10.4267
▁Union	-10.4269
▁spend	-10.4277
▁byte	-10.4279
▁park	-10.4282
류	-10.4284
start	-10.4285
▁혹은	-10.4293
em	-10.4296
▁환경	-10.4296
▁dark	-10.4298
▁smaller	-10.4302
io	-10.4303
▁sequence	-10.4308
▁obtain	-10.4309
▁대구	-10.4311
▁conference	-10.4311
콜걸만남	-10.4317
▁채	-10.4324
▁avoid	-10.4326
TM	-10.4329
▁이상의	-10.4332
▁현	-10.4334
▁healthy	-10.4339
▁pair	-10.4344
▁passed	-10.4344
▁연	-10.4351
▁league	-10.4351
▁어	-10.4352
ma	-10.4354
▁approximately	-10.4354
▁£	-10.4357
▁거	-10.4357
▁purpose	-10.4358
▁갈	-10.4362
▁Thomas	-10.4369
직	-10.437
▁tour	-10.4371
▁enter	-10.4371
▁classes	-10.4372
▁CD	-10.4378
▁listed	-10.438
▁baby	-10.4382
▁plant	-10.4383
UC	-10.4387
▁appears	-10.4391
▁appropriate	-10.4393
하지만	-10.4393
▁straight	-10.4394
▁vector	-10.4396
▁finding	-10.4401
▁select	-10.4402
▁금지	-10.4409
▁Game	-10.4418
▁수정	-10.4423
▁operations	-10.4424
▁코	-10.4424
▁competition	-10.4425
달	-10.4428
View	-10.4429
▁보인다	-10.4429
바카라사이트	-10.4431
Line	-10.4431
▁married	-10.4433
ty	-10.4434
▁Law	-10.4435
병	-10.4445
ville	-10.4447
▁요금	-10.4447
▁mg	-10.4451
▁ID	-10.4451
▁paid	-10.4453
▁sets	-10.4463
있는	-10.4464
▁connected	-10.4466
생	-10.4475
▁Christian	-10.448
▁rare	-10.4481
▁통한	-10.4495
▁engine	-10.4496
function	-10.4499
▁우	-10.4499
▁삼	-10.45
▁Because	-10.4504
▁touch	-10.4506
▁department	-10.4512
core	-10.4515
▁senior	-10.4516
▁광고	-10.4519
▁Over	-10.4527
▁그냥	-10.4529
▁생각	-10.4531
▁생활	-10.4532
▁홈페이지	-10.4536
▁정도로	-10.4537
▁『	-10.4539
▁쿠폰	-10.4551
창	-10.4554
ized	-10.4554
▁connection	-10.4555
음	-10.4555
str	-10.4568
▁송	-10.4576
▁recorded	-10.4579
▁benefit	-10.4584
광	-10.4586
▁배	-10.4596
▁항상	-10.4599
▁existing	-10.4599
$,	-10.4601
살	-10.4605
▁성장	-10.4607
▁vehicle	-10.4609
▁org	-10.461
▁입력	-10.4611
▁document	-10.4611
level	-10.4612
▁LG	-10.4612
▁동	-10.4613
▁USA	-10.4614
▁만드는	-10.4616
▁solid	-10.4616
lastname	-10.4616
▁knew	-10.4617
▁인천	-10.4622
▁fourth	-10.4628
▁마지막	-10.4628
▁iv	-10.4638
▁spring	-10.4638
▁Yes	-10.464
▁조작	-10.4641
▁lv	-10.4645
대로	-10.4647
}^{	-10.4648
▁Mac	-10.465
▁제조	-10.4658
평	-10.466
▁except	-10.466
난	-10.4661
▁이벤트	-10.4661
▁통합	-10.4662
▁movement	-10.4664
룰렛	-10.4669
▁블랙	-10.4676
▁Click	-10.4677
▁phase	-10.469
term	-10.4698
▁받을	-10.4704
▁opportunities	-10.4705
▁easier	-10.4711
game	-10.4717
▁이전	-10.4719
▁sort	-10.4721
▁sell	-10.4722
▁measure	-10.4722
▁rule	-10.4733
터	-10.4739
▁할인	-10.4741
Size	-10.4744
기를	-10.4747
▁ten	-10.4751
▁wants	-10.4752
';	-10.4752
▁AND	-10.4755
주의	-10.4758
▁Un	-10.4761
▁female	-10.4768
▁Living	-10.4772
▁Show	-10.4774
▁alone	-10.4779
▁주는	-10.4781
▁주로	-10.4792
▁Le	-10.4793
Point	-10.4794
▁문제를	-10.4796
▁네	-10.48
▁Like	-10.4801
환	-10.4805
▁자주	-10.4807
[]	-10.4809
▁조금	-10.4812
▁그대로	-10.4817
▁leader	-10.4828
▁Dec	-10.4831
PIN	-10.4833
지역	-10.4833
▁Microsoft	-10.4842
▁제공합니다	-10.4845
▁looked	-10.4852
▁Sun	-10.4855
▁letter	-10.4856
▁대통령	-10.4857
▁참여	-10.4859
▁grow	-10.4866
▁efforts	-10.487
▁steps	-10.487
▁Germany	-10.487
▁requirements	-10.4877
▁도착	-10.4884
IO	-10.4886
▁찾아	-10.4889
▁actual	-10.4892
▁sources	-10.4895
▁서로	-10.4899
▁attack	-10.49
▁sum	-10.4903
′	-10.4911
WC	-10.4914
▁Division	-10.4916
▁살	-10.4917
▁댓글	-10.4921
▁soft	-10.4924
▁thanks	-10.4924
들에게	-10.4925
▁serious	-10.4928
▁drop	-10.493
ment	-10.493
▁가입	-10.4934
▁Director	-10.4934
Count	-10.4937
▁공개	-10.4939
▁float	-10.4945
▁Valley	-10.4945
Node	-10.4954
!!!	-10.4956
▁실제로	-10.4957
죠	-10.4957
On	-10.4964
▁covered	-10.4968
▁≡	-10.4973
▁missing	-10.4975
▁scene	-10.4975
▁heavy	-10.4979
▁Peter	-10.498
▁mm	-10.4981
▁remain	-10.4981
▁sea	-10.4982
▁regarding	-10.4983
▁Will	-10.4989
▁Times	-10.4996
▁voice	-10.4999
▁brain	-10.5001
asm	-10.5003
mu	-10.5003
▁injury	-10.5006
년간	-10.5016
▁집	-10.5016
▁inc	-10.5016
▁Thank	-10.5018
▁아침	-10.5018
게임	-10.5027
▁becomes	-10.5029
▁lack	-10.5033
▁devices	-10.5034
▁certainly	-10.5036
For	-10.5037
려	-10.5037
▁onto	-10.5038
▁Hill	-10.504
▁winning	-10.5045
▁requires	-10.5046
지원	-10.5047
▁dog	-10.505
▁LOW	-10.5055
ally	-10.5056
▁El	-10.5061
▁Brown	-10.5069
▁channel	-10.507
▁Western	-10.5071
▁prevent	-10.5073
▁symptoms	-10.5077
감	-10.5078
▁대전	-10.5079
운	-10.5091
").	-10.5091
▁Program	-10.5093
▁등으로	-10.5094
▁저는	-10.5099
▁앞으로	-10.5104
Map	-10.5106
▁platform	-10.5108
▁출발	-10.5111
▁spot	-10.5116
▁separate	-10.512
▁husband	-10.5122
▁웹	-10.5123
▁사용하는	-10.5123
슬롯	-10.5129
▁definitely	-10.5134
▁fan	-10.5136
▁배팅	-10.5138
▁signal	-10.5142
▁진	-10.5143
▁Government	-10.5146
군산	-10.5148
=>	-10.5149
▁guys	-10.5151
back	-10.5157
over	-10.5157
▁jobs	-10.5157
▁challenge	-10.5157
▁Africa	-10.5157
▁follows	-10.516
from	-10.5162
ization	-10.5167
mathrm	-10.5168
▁girl	-10.5176
▁poor	-10.5178
▁artists	-10.5183
▁internal	-10.5188
복	-10.5192
US	-10.5193
▁Long	-10.5195
▁distributed	-10.5197
▁갖고	-10.5197
▁\\	-10.5201
가지	-10.5207
▁얼마나	-10.521
▁Angeles	-10.521
▁parameters	-10.5217
▁같습니다	-10.522
▁Another	-10.5223
▁weather	-10.5223
xmm	-10.5225
▁전화	-10.5226
▁됐다	-10.5232
▁https	-10.5234
white	-10.5242
WT	-10.5243
편	-10.5243
string	-10.5248
▁pictures	-10.5251
http	-10.5258
▁제공하는	-10.5259
▁ice	-10.5263
▁perform	-10.5263
림	-10.5264
었다	-10.5264
▁각각	-10.5268
▁Information	-10.5268
▁offering	-10.5277
theta	-10.5277
▁label	-10.5282
열	-10.5283
▁Test	-10.5288
▁Museum	-10.5288
▁조회	-10.5288
덕	-10.5289
▁Chinese	-10.5298
▁Power	-10.5307
?”	-10.5308
▁eventually	-10.531
▁Book	-10.5313
▁gift	-10.5314
▁reasons	-10.5317
addEventListener	-10.5319
▁artist	-10.5324
▁Team	-10.5325
▁respect	-10.5326
▁평가	-10.5329
▁Series	-10.533
호텔	-10.5336
▁윤	-10.5337
하도록	-10.5338
▁advice	-10.5341
▁__	-10.5343
▁talking	-10.5345
gh	-10.5346
▁owner	-10.5346
▁가는	-10.5347
▁applied	-10.535
▁therapy	-10.535
object	-10.5351
▁달리	-10.5352
매	-10.5355
▁Martin	-10.5357
▁편의	-10.5363
▁상	-10.5363
▁Journal	-10.5365
▁Tom	-10.5367
›	-10.5373
ate	-10.5374
암	-10.5387
be	-10.539
▁award	-10.539
▁throw	-10.5391
▁forms	-10.5394
▁표시	-10.5401
▁vote	-10.5401
▁load	-10.5405
▁영국	-10.5407
▁변경	-10.5416
페이지	-10.5418
free	-10.5422
투	-10.5422
▁angle	-10.5423
▁신규	-10.5427
▁fixed	-10.543
▁Make	-10.543
▁Royal	-10.5431
switch	-10.5432
▁임	-10.5435
▁라	-10.5436
▁Lee	-10.5438
▁shop	-10.5439
▁가능합니다	-10.5446
〈	-10.5453
▁pieces	-10.5459
▁extremely	-10.546
▁Management	-10.5464
▁storage	-10.5464
▁feeling	-10.5466
설	-10.5466
▁wonderful	-10.5473
▁investment	-10.5476
▁HIGH	-10.5477
num	-10.5485
▁capital	-10.5488
▁대비	-10.549
());	-10.5492
▁economy	-10.5494
기도	-10.5494
▁edge	-10.5495
▁reached	-10.5497
▁adding	-10.5498
▁testing	-10.5505
▁respectively	-10.5508
▁기능을	-10.5508
utils	-10.5518
▁정치	-10.5523
▁WiFi	-10.5531
▁despite	-10.5532
홀덤	-10.5533
▁supply	-10.5533
▁couldn	-10.5534
▁반드시	-10.5538
▁매일	-10.5538
▁kept	-10.5541
'}	-10.5542
송	-10.5545
see	-10.5546
산업	-10.5548
▁ratio	-10.5554
Color	-10.5559
▁회사	-10.5575
▁introduced	-10.5576
▁준비	-10.5582
이지만	-10.5582
▁호	-10.5586
▁African	-10.5586
일본	-10.5587
▁FOR	-10.5588
▁eat	-10.5589
▁앞서	-10.5589
ce	-10.5591
▁중심으로	-10.5594
▁seconds	-10.5597
▁eax	-10.5602
▁fish	-10.5609
▁perhaps	-10.561
▁영상	-10.5612
▁Who	-10.5613
문화	-10.5614
ge	-10.5616
▁소개	-10.5617
的	-10.5621
이라며	-10.5626
▁Ada	-10.5627
▁파	-10.5627
▁Beach	-10.5631
▁Mike	-10.5632
▁fight	-10.5634
▁Bill	-10.5636
▁홀덤	-10.5638
▁Design	-10.5642
표	-10.5645
▁카	-10.5645
▁organizations	-10.5648
ner	-10.5649
▁각주	-10.5649
▁Up	-10.565
▁About	-10.5651
▁ahead	-10.5659
▁우선	-10.5662
cdot	-10.5664
▁입니다	-10.5668
팀	-10.567
▁현대	-10.5676
▁공동	-10.5678
▁shall	-10.5693
▁어려운	-10.5694
▁older	-10.5707
▁leaders	-10.5713
▁Bank	-10.5714
▁유럽	-10.5725
▁싶은	-10.5733
▁명	-10.5734
▁bank	-10.5735
▁combination	-10.5737
▁이야기를	-10.5737
▁Japanese	-10.5737
▁guide	-10.5739
▁Both	-10.574
▁metal	-10.5743
▁glass	-10.5744
▁powerful	-10.5747
▁mentioned	-10.575
▁formula	-10.5751
▁말을	-10.5756
▁Media	-10.5763
▁비즈니스	-10.5765
▁경우가	-10.5769
▁신고	-10.5775
센터	-10.5785
▁Mary	-10.5787
▁방문	-10.5792
▁Nov	-10.5794
ine	-10.5795
▁cold	-10.5795
▁Grand	-10.5799
▁Project	-10.5799
▁이동	-10.5804
▁firstname	-10.5804
▁드라마	-10.5805
bit	-10.5807
▁발표	-10.5811
▁Committee	-10.5818
ED	-10.5822
▁definition	-10.5826
▁Library	-10.5827
▁내용을	-10.5827
▁Any	-10.5829
show	-10.5832
▁©	-10.5833
▁Women	-10.5837
▁Records	-10.5838
▁di	-10.5839
▁Class	-10.585
▁recommend	-10.5851
▁traffic	-10.5858
▁출신	-10.5863
▁residents	-10.5865
▁황	-10.5869
▁빠른	-10.5877
▁task	-10.5881
▁famous	-10.5883
▁officials	-10.5885
point	-10.5888
▁CEO	-10.5888
모텔출장마사지샵	-10.5889
▁항공편	-10.5899
왕	-10.5902
▁두고	-10.5903
▁technical	-10.5904
▁failed	-10.5905
Sprite	-10.5915
▁스	-10.5924
출장전화번호	-10.5925
▁cash	-10.5927
▁custom	-10.593
▁Community	-10.5936
▁novel	-10.5937
▁calls	-10.5941
▁위치	-10.5941
▁mostly	-10.5942
pin	-10.5943
▁guy	-10.5943
▁nation	-10.5943
▁건강	-10.5945
▁대신	-10.5948
which	-10.5948
▁carry	-10.5949
▁linear	-10.595
▁만	-10.5951
▁log	-10.5953
▁기계	-10.5954
NAME	-10.5957
기자	-10.5966
▁신청	-10.5969
displaystyle	-10.5974
▁advantage	-10.5976
출장만남	-10.5979
)||	-10.598
▁출시	-10.5984
▁불	-10.5984
절	-10.5987
▁아래	-10.5992
▁root	-10.5993
규	-10.5998
▁protect	-10.6003
▁core	-10.6008
▁주소	-10.6008
ko	-10.6012
▁quarter	-10.6013
까	-10.6015
▁communities	-10.6015
▁Italian	-10.6015
)=	-10.6018
▁최종	-10.602
▁View	-10.6025
▁사람은	-10.6025
▁계획	-10.6025
▁majority	-10.603
▁Sports	-10.6033
ul	-10.6033
▁북한	-10.6034
▁경기도	-10.6035
▁workers	-10.6036
×	-10.6036
▁ended	-10.6037
▁minimum	-10.6039
▁brother	-10.6039
▁haven	-10.6041
통	-10.6042
▁작품	-10.6048
▁leaving	-10.6056
▁fill	-10.6058
▁attempt	-10.6058
▁Chris	-10.606
▁notice	-10.6062
▁Academy	-10.6064
▁조사	-10.6065
▁nine	-10.6066
▁removed	-10.6066
업	-10.6074
▁특정	-10.6075
사업	-10.608
▁starts	-10.608
▁noted	-10.6081
kWh	-10.6085
▁Arts	-10.6088
▁helping	-10.6088
▁주문	-10.6088
▁참고	-10.609
push	-10.6092
예	-10.6103
▁fields	-10.6107
▁biggest	-10.6115
▁못한	-10.6115
▁formed	-10.6117
▁Development	-10.6118
▁Oct	-10.6118
▁scored	-10.612
way	-10.6126
▁Army	-10.6128
▁components	-10.6129
▁profile	-10.6129
▁increasing	-10.613
▁strategy	-10.6132
▁records	-10.6133
▁port	-10.6134
▁보호	-10.6135
▁인한	-10.6137
마사지황형	-10.614
▁supported	-10.6146
▁조선	-10.6147
▁Conference	-10.6149
▁보안	-10.615
▁관계자는	-10.6151
▁일본의	-10.6151
▁Bar	-10.6155
▁Feb	-10.6155
Manager	-10.6156
▁facilities	-10.6156
top	-10.6156
▁추진	-10.6161
▁proposed	-10.6164
▁transfer	-10.6165
▁happened	-10.6172
hl	-10.6173
▁solve	-10.6175
▁continues	-10.618
▁combined	-10.618
My	-10.6182
▁gone	-10.6183
▁자신이	-10.6184
sp	-10.6184
STOR	-10.6184
했으며	-10.6192
box	-10.6193
▁deaths	-10.6194
▁Men	-10.6198
▁kitchen	-10.6201
▁거래	-10.6202
▁experienced	-10.6207
▁주변	-10.6209
▁열	-10.621
▁다만	-10.6211
▁objects	-10.6211
▁tumor	-10.6213
▁wine	-10.6215
▁제주	-10.6216
▁위하여	-10.6217
est	-10.6226
▁tests	-10.6228
red	-10.6229
▁사회적	-10.6229
▁영어	-10.623
▁min	-10.6235
▁발생	-10.6235
▁cards	-10.6237
▁길	-10.625
▁university	-10.625
구미	-10.6256
▁session	-10.6257
side	-10.6258
▁예	-10.6259
▁모델	-10.6261
ac	-10.6269
}{\	-10.6269
error	-10.627
New	-10.627
▁density	-10.6272
출장걸	-10.6278
▁있던	-10.6279
current	-10.6286
!"	-10.6288
▁Network	-10.6296
날	-10.6298
▁Its	-10.63
▁toward	-10.6304
▁Store	-10.6306
LED	-10.6309
▁driving	-10.6314
▁Congress	-10.6316
북	-10.6317
출장맛사지	-10.6318
년대	-10.632
▁{}	-10.6321
abapgit	-10.6331
▁비해	-10.6332
했지만	-10.6334
▁loved	-10.6334
▁delivery	-10.6336
▁한번	-10.6336
▁Date	-10.634
▁internet	-10.6342
▁developing	-10.6345
네요	-10.6346
▁bed	-10.6348
▁dry	-10.6348
▁개선	-10.6349
▁만에	-10.6355
하는데	-10.6355
ls	-10.6356
▁기록	-10.636
▁Virginia	-10.636
▁전했다	-10.6362
▁advanced	-10.6362
▁프랑스	-10.6365
lin	-10.6367
▁전기	-10.6369
▁albums	-10.6369
▁▶	-10.6371
▁dedicated	-10.6371
▁않다	-10.6378
Image	-10.6378
▁ideal	-10.6378
▁Have	-10.6379
').	-10.6383
포항	-10.6384
▁administration	-10.6388
ting	-10.6389
▁numerous	-10.639
말	-10.6392
▁sides	-10.6392
▁slightly	-10.6393
▁Take	-10.6395
▁otherwise	-10.6397
테	-10.6402
▁받았다	-10.6405
▁strength	-10.6406
▁colors	-10.6408
‹	-10.6409
▁여전히	-10.6409
▁Car	-10.6409
▁row	-10.6409
▁mix	-10.6412
▁driver	-10.6413
wood	-10.6418
▁birth	-10.6418
▁hl	-10.6419
▁위해서는	-10.6419
▁operating	-10.6428
▁동영상	-10.6434
▁girls	-10.6439
so	-10.6441
▁becoming	-10.6441
Get	-10.6442
▁aren	-10.6443
▁lots	-10.6444
하던	-10.6448
▁centre	-10.6451
▁raised	-10.6454
▁reviews	-10.6455
▁하며	-10.6457
▁component	-10.6461
▁concept	-10.6461
▁appearance	-10.6462
▁writer	-10.6462
▁pred	-10.6464
▁inv	-10.6466
▁Sea	-10.6466
▁Their	-10.647
▁train	-10.6471
we	-10.6475
▁핵심	-10.649
▁홍	-10.6493
▁gain	-10.6493
▁처리	-10.6494
▁미래	-10.6496
▁net	-10.6497
▁sector	-10.6498
출장마사지샵	-10.6498
▁소재	-10.6498
mail	-10.6499
전지역출장마사지샵	-10.65
▁기능	-10.65
▁street	-10.6501
▁plays	-10.6502
경제	-10.6505
▁learned	-10.6505
▁받는	-10.6514
▁Scott	-10.6517
▁행정	-10.6527
▁truly	-10.6528
▁medium	-10.6529
삼	-10.6534
자가	-10.6538
All	-10.6539
글	-10.6541
▁mission	-10.6542
Key	-10.6543
▁str	-10.6546
각	-10.655
▁winter	-10.6551
▁remaining	-10.6555
ro	-10.6555
호텔카지노	-10.6557
▁homes	-10.6561
▁bill	-10.6561
▁Technology	-10.6566
source	-10.6567
서비스	-10.6569
▁점	-10.6576
▁「	-10.6591
▁해도	-10.6592
▁interview	-10.6592
▁treated	-10.6598
▁관심을	-10.6598
▁killed	-10.6599
▁카드	-10.6603
}(	-10.6611
▁포	-10.6613
▁결제	-10.6617
▁achieve	-10.6621
style	-10.6622
array	-10.6624
▁때는	-10.6625
▁Richard	-10.6626
▁alternative	-10.663
▁variables	-10.663
table	-10.6631
▁protection	-10.6633
base	-10.6636
return	-10.6638
▁Carolina	-10.6639
▁경우에는	-10.6642
총	-10.6644
락	-10.6649
▁sleep	-10.6651
▁capacity	-10.6654
▁머니	-10.666
▁대부분	-10.6662
▁standards	-10.6662
▁seeing	-10.6663
▁cup	-10.6666
▁NOT	-10.6667
지도	-10.6668
▁책	-10.667
et	-10.6679
르	-10.6684
▁comfortable	-10.6688
▁meaning	-10.6688
▁managed	-10.669
▁Gold	-10.6697
▁홍보	-10.6699
▁featured	-10.671
)^	-10.6712
시장	-10.6715
ad	-10.6716
▁menu	-10.6716
▁foreign	-10.6717
▁category	-10.6718
▁income	-10.6718
▁매	-10.6718
▁frequency	-10.6719
▁stations	-10.6722
▁techniques	-10.6722
▁partner	-10.6725
라며	-10.6726
▁equations	-10.6726
▁originally	-10.6726
)\	-10.6727
ary	-10.6732
He	-10.6734
▁Games	-10.6736
▁agreement	-10.6736
▁evening	-10.6738
▁Family	-10.6738
▁minute	-10.6739
Serial	-10.6741
▁happens	-10.6745
▁bought	-10.6748
▁Copyright	-10.6749
▁cars	-10.675
▁episode	-10.6754
▁society	-10.6755
▁Rock	-10.6757
▁METHOD	-10.6763
TYPE	-10.6764
per	-10.6765
▁shared	-10.6767
▁군	-10.6769
▁Charles	-10.6769
▁sun	-10.6774
▁최신	-10.6774
▁Video	-10.6779
▁cast	-10.6779
▁motor	-10.6786
줄	-10.6791
▁Under	-10.6792
)’	-10.6794
▁warm	-10.68
▁중에	-10.68
▁serving	-10.68
▁route	-10.6806
우리	-10.681
kg	-10.6814
▁한다는	-10.6818
일에	-10.6818
새	-10.682
▁부동산	-10.6821
▁prove	-10.6823
▁wouldn	-10.6823
와의	-10.6825
▁clearly	-10.6825
항	-10.6827
▁max	-10.6828
♥	-10.6831
▁notes	-10.6833
▁적용	-10.6833
▁claim	-10.6836
▁debut	-10.6837
▁teaching	-10.6838
▁coffee	-10.6843
▁치료	-10.6844
▁description	-10.6844
▁reduced	-10.6846
▁어린이	-10.6849
▁특별	-10.6861
▁구성	-10.6864
츠	-10.6872
▁Earth	-10.6873
▁refl	-10.6874
▁광주	-10.6875
하기도	-10.6876
▁자료	-10.688
▁determined	-10.6882
▁ship	-10.6887
▁인도	-10.6888
▁제품을	-10.689
▁discuss	-10.6893
▁refer	-10.6893
▁slow	-10.6893
▁balance	-10.6908
▁END	-10.6916
▁trace	-10.6921
▁하나의	-10.6943
▁audience	-10.6944
외	-10.6949
▁iPhone	-10.6951
▁holiday	-10.6954
▁마음을	-10.6955
ka	-10.6958
ish	-10.6959
▁Festival	-10.6959
▁identified	-10.6964
▁아름다운	-10.6972
▁auto	-10.6972
▁포함	-10.6973
ant	-10.6974
▁occur	-10.6975
▁whom	-10.6978
▁교환	-10.6978
▁그가	-10.698
▁examination	-10.6981
래	-10.6986
▁context	-10.6988
▁classic	-10.6988
▁improved	-10.6994
ive	-10.6999
강릉	-10.7
▁사망	-10.7008
마다	-10.7011
▁방법을	-10.7011
▁flat	-10.7011
▁node	-10.7012
▁활동을	-10.7012
▁북	-10.7012
▁작업	-10.7021
윤	-10.7024
커	-10.7029
▁확률	-10.703
▁wear	-10.7032
As	-10.7035
▁forces	-10.7035
IB	-10.7039
▁progress	-10.7041
▁Old	-10.7041
▁Ohio	-10.7041
▁ex	-10.7042
▁panel	-10.7044
▁east	-10.7047
▁en	-10.7048
▁essential	-10.7049
▁proper	-10.7055
▁Software	-10.7055
▁($	-10.7056
▁ring	-10.7065
▁아시아	-10.707
▁Back	-10.7071
▁Line	-10.7072
성을	-10.7072
▁국민	-10.7076
▁creative	-10.7084
▁Social	-10.7087
▁Water	-10.7087
▁Ben	-10.7089
망	-10.7092
▁Boolean	-10.7097
▁Jones	-10.71
▁restaurant	-10.71
▁spending	-10.7101
▁failure	-10.7109
▁이와	-10.7112
도록	-10.7114
obj	-10.712
▁guitar	-10.7124
▁pro	-10.7124
▁native	-10.713
▁");	-10.7133
▁seat	-10.7134
▁속에서	-10.7138
▁Johnson	-10.714
▁buildings	-10.7141
▁SK	-10.7143
▁듯	-10.7144
▁founded	-10.7145
볼	-10.7147
▁하기	-10.7148
What	-10.7148
Pin	-10.7154
▁대상	-10.7156
▁interface	-10.7159
▁Online	-10.716
▁돈	-10.7163
▁Boston	-10.7164
▁pool	-10.7167
▁DATA	-10.7168
▁Only	-10.7169
▁많다	-10.7171
▁바카라사이트	-10.7172
▁discussion	-10.7173
=\	-10.7184
▁식사	-10.719
▁Part	-10.7191
▁그것은	-10.7192
▁되면	-10.7192
▁사랑	-10.7192
▁공간	-10.7192
▁suggest	-10.7193
▁눈	-10.7193
▁twice	-10.7195
▁bus	-10.7199
▁바탕으로	-10.7206
▁잭	-10.7206
▁스스로	-10.7211
Re	-10.7212
▁domain	-10.7213
▁directed	-10.7215
으로부터	-10.7225
증	-10.7226
▁ran	-10.7233
▁Live	-10.7233
▁behavior	-10.7233
▁개의	-10.7234
he	-10.7241
들도	-10.7243
global	-10.7243
▁guess	-10.7247
il	-10.7249
▁west	-10.725
▁dead	-10.7252
▁Call	-10.7252
▁exercise	-10.7254
▁column	-10.7254
ING	-10.7257
▁contain	-10.7259
▁마케팅	-10.726
▁가능성이	-10.7261
attr	-10.7262
▁trial	-10.7265
브	-10.7268
▁있다면	-10.727
▁wedding	-10.727
▁agree	-10.7273
▁schedule	-10.7281
▁defense	-10.7283
버	-10.7284
▁해서	-10.7285
▁작성	-10.7286
▁demand	-10.7286
▁커피	-10.7287
▁Awards	-10.7293
▁rich	-10.7298
▁leads	-10.7299
▁extended	-10.7302
▁운동	-10.7312
▁explain	-10.7313
▁프로	-10.7314
▁독일	-10.7314
▁과정에서	-10.7315
▁articles	-10.732
▁maintain	-10.7322
▁updated	-10.7323
use	-10.7328
▁beat	-10.7328
▁에너지	-10.7328
▁animals	-10.733
pos	-10.733
▁resolution	-10.7334
▁topic	-10.7338
▁Summer	-10.734
▁한국의	-10.734
▁전용	-10.7343
▁보니	-10.7345
▁parent	-10.7349
▁Catholic	-10.7351
옥	-10.7353
▁proof	-10.7359
▁Second	-10.7362
▁coverage	-10.7367
▁communication	-10.7367
▁금융	-10.7368
작	-10.7371
}_{	-10.7371
▁tissue	-10.7373
▁Lord	-10.7374
▁학생	-10.7377
▁changing	-10.738
곡	-10.7383
▁connect	-10.7384
▁leaves	-10.7384
▁확대	-10.7387
▁parties	-10.7388
▁현장	-10.7388
▁Commission	-10.7391
든	-10.7393
▁기사	-10.7396
▁shopping	-10.7398
▁waiting	-10.7402
▁강화	-10.7407
▁만들기	-10.7414
하자	-10.7415
▁Joe	-10.7418
▁degrees	-10.742
。	-10.742
▁samples	-10.7421
▁fashion	-10.7424
과의	-10.7424
é	-10.7428
▁것이라고	-10.7429
▁감독	-10.7432
▁ENDMETHOD	-10.7437
▁estate	-10.7438
기업	-10.7439
.<	-10.744
님	-10.7443
▁Special	-10.7443
phi	-10.7445
▁Real	-10.7452
target	-10.7453
▁dec	-10.7459
▁Jesus	-10.7464
▁Using	-10.7465
▁이름	-10.7472
head	-10.7473
▁팀	-10.7473
ha	-10.7473
▁심	-10.7475
▁보이는	-10.7476
▁Spanish	-10.748
▁foot	-10.748
▁Mexico	-10.7487
AS	-10.7487
▁facility	-10.7489
▁Football	-10.7492
▁fragment	-10.7493
▁width	-10.7507
채	-10.7507
▁motion	-10.7515
house	-10.7519
len	-10.7522
▁li	-10.7524
▁allowing	-10.7525
▁사람들은	-10.7525
★	-10.7526
▁represent	-10.7532
SP	-10.7533
대학	-10.7533
▁basketball	-10.7533
char	-10.7534
file	-10.7534
신문	-10.7536
▁그룹	-10.7536
▁Out	-10.7537
▁speak	-10.7548
▁pm	-10.7548
▁Pre	-10.7549
▁Paris	-10.7554
▁plants	-10.7561
▁teacher	-10.7561
▁info	-10.7562
▁generation	-10.7562
▁Point	-10.7565
▁chief	-10.7567
▁literature	-10.7567
Function	-10.7568
▁당신이	-10.7573
▁사용자	-10.7573
▁phys	-10.7574
ter	-10.7575
well	-10.7577
▁사진을	-10.7583
▁Review	-10.7585
▁건설	-10.7592
▁keeping	-10.7594
▁Radio	-10.7594
▁맞는	-10.7596
▁spread	-10.7596
▁owners	-10.7597
▁이유는	-10.7598
▁배송	-10.7599
▁전혀	-10.7607
Base	-10.7607
▁유지	-10.7609
월에	-10.7612
▁사는	-10.7617
▁infection	-10.7618
하라	-10.7619
▁####	-10.7624
의정부	-10.7625
▁Town	-10.7626
▁prepared	-10.7631
때	-10.7633
room	-10.7635
▁chain	-10.7635
▁업무	-10.7639
▁관련된	-10.7642
▁rep	-10.7643
▁signs	-10.7649
There	-10.7649
▁magazine	-10.7654
▁결정	-10.7661
▁rooms	-10.7666
▁relevant	-10.7668
uk	-10.7673
▁funds	-10.7678
▁typically	-10.768
filename	-10.7681
▁Before	-10.7682
대학교	-10.7685
▁raise	-10.7687
▁Code	-10.77
▁welcome	-10.7716
▁파일	-10.7724
▁processes	-10.7726
infty	-10.773
▁exchange	-10.7731
▁river	-10.7733
▁Israel	-10.7735
▁Korea	-10.7742
▁여	-10.7744
mathbf	-10.7744
▁행사	-10.7744
▁Police	-10.7745
▁자동	-10.7751
▁Full	-10.7752
▁wave	-10.7752
▁공유	-10.7753
▁안에	-10.7757
▁plane	-10.7758
())	-10.7758
▁오히려	-10.776
속초	-10.776
링	-10.7769
▁선정	-10.7772
▁Where	-10.7772
▁전자	-10.7773
▁severe	-10.778
▁sweet	-10.7781
▁Michigan	-10.7783
▁corner	-10.7789
▁whatever	-10.7795
탄	-10.7795
▁홈	-10.7795
▁Every	-10.7798
▁register	-10.7798
▁보통	-10.78
more	-10.78
▁토토	-10.7812
▁Jersey	-10.7814
▁시험	-10.7817
▁identify	-10.7818
▁되지	-10.7828
▁bag	-10.7831
▁수많은	-10.7835
▁개최	-10.7836
info	-10.7836
▁Russian	-10.7836
▁Natural	-10.7839
령	-10.7841
▁내용	-10.7841
▁elected	-10.7843
▁Centre	-10.7843
시설	-10.7846
▁$(	-10.7846
▁나의	-10.7847
▁Young	-10.7849
▁executive	-10.7855
▁Kingdom	-10.7857
량	-10.786
▁thousands	-10.7861
down	-10.7867
▁significantly	-10.7867
▁KBS	-10.7868
▁특별한	-10.7874
▁reaction	-10.7875
▁Zealand	-10.7875
▁곳	-10.7878
▁("	-10.7883
▁lose	-10.7887
▁삼성	-10.7892
▁studio	-10.7902
▁yes	-10.7904
▁excited	-10.7904
▁suggested	-10.7906
▁꽃	-10.7908
▁exist	-10.7909
path	-10.7911
▁아가씨	-10.7918
▁III	-10.792
▁reality	-10.7923
count	-10.7925
▁structures	-10.7926
▁helpful	-10.7931
▁replaced	-10.7932
▁videos	-10.7934
▁풀	-10.7938
▁없었다	-10.7939
▁agreed	-10.7941
▁이름을	-10.7943
▁examples	-10.7946
중국	-10.7948
▁findings	-10.795
▁agency	-10.7954
)*	-10.7954
▁주차	-10.7957
▁catch	-10.796
▁lived	-10.7961
▁county	-10.7965
▁edition	-10.7967
빈	-10.7973
▁문의	-10.7974
▁island	-10.7974
▁사건	-10.7976
▁들	-10.7977
▁detailed	-10.7977
력	-10.7982
▁filled	-10.7983
▁musical	-10.7984
져	-10.7988
▁생각이	-10.7988
▁설명했다	-10.7989
▁victory	-10.799
▁protein	-10.7991
▁아파트	-10.7991
▁필요	-10.7994
▁stores	-10.7994
▁probability	-10.7995
▁layer	-10.7995
▁sugar	-10.7996
▁스마트	-10.7997
▁academic	-10.7999
]);	-10.8001
▁이미지	-10.8004
되면	-10.801
인지	-10.8011
▁허	-10.8012
▁DVD	-10.8013
▁뿐	-10.8013
▁bone	-10.8014
label	-10.8015
▁중앙	-10.8021
▁Aug	-10.8024
Element	-10.8024
ir	-10.8026
▁Global	-10.8026
From	-10.8031
▁대형	-10.8031
학교	-10.8032
▁wind	-10.8033
▁wood	-10.8042
▁변화	-10.8044
범	-10.8045
▁smooth	-10.8047
▁IP	-10.8047
되며	-10.8048
▁resulting	-10.8053
but	-10.8057
byte	-10.8058
알	-10.8066
안산	-10.8068
▁것에	-10.8071
▁graph	-10.8074
▁knows	-10.8074
▁owned	-10.8076
메	-10.8079
▁cities	-10.8081
▁>>	-10.8094
뿐만	-10.8095
▁Medical	-10.8095
▁argument	-10.8099
▁OUTPUT	-10.81
▁returns	-10.8101
▁Main	-10.8106
Model	-10.8108
▁joint	-10.8113
▁위해서	-10.8115
▁Vector	-10.8115
▁Steve	-10.8118
▁database	-10.8119
▁Hi	-10.8121
▁상담	-10.8123
▁master	-10.8123
▁electric	-10.8124
▁요즘	-10.8125
▁friendly	-10.8128
▁relatively	-10.8129
▁PDF	-10.8129
Command	-10.8133
▁authors	-10.8138
▁presentation	-10.8143
lib	-10.8146
▁grade	-10.8147
한다는	-10.8149
▁trees	-10.8149
▁garden	-10.8152
▁Minister	-10.8152
And	-10.8154
년까지	-10.816
sub	-10.816
▁discovered	-10.8162
▁계획이다	-10.8167
▁Film	-10.8169
익산	-10.8177
▁오픈	-10.8179
▁비용	-10.8181
▁조직	-10.8184
▁Security	-10.8184
▁carried	-10.8186
▁manage	-10.8187
▁컴퓨터	-10.8189
▁공연	-10.8191
황	-10.8191
애	-10.8192
▁stress	-10.8194
▁thank	-10.8197
▁claims	-10.82
▁Page	-10.8201
▁environmental	-10.8203
▁battle	-10.8207
▁Little	-10.8209
▁influence	-10.8211
pt	-10.8218
▁div	-10.822
▁theme	-10.8222
▁editor	-10.8226
ml	-10.8229
▁visual	-10.8229
찬	-10.823
▁audio	-10.8237
▁밤	-10.8238
▁leadership	-10.8238
▁prime	-10.8238
ng	-10.824
▁FC	-10.8247
▁Ireland	-10.8249
▁association	-10.825
');	-10.8251
▁당신은	-10.8254
▁confirmed	-10.8255
▁빠르게	-10.8257
손	-10.8259
▁rise	-10.826
ri	-10.8261
▁ls	-10.8262
▁secure	-10.8262
init	-10.8262
텍사스	-10.8265
▁launch	-10.8273
▁프로젝트	-10.8273
ur	-10.8275
▁관계	-10.8276
▁taste	-10.828
▁tips	-10.8285
▁fair	-10.829
▁대회	-10.8298
▁아니	-10.8299
▁키	-10.83
▁focused	-10.8306
평택	-10.8311
▁sounds	-10.8314
ler	-10.8319
▁recommended	-10.8319
remove	-10.8322
▁MOV	-10.8323
▁chosen	-10.8324
▁funding	-10.8325
page	-10.8328
open	-10.8332
▁guests	-10.834
▁launched	-10.8343
블랙	-10.8347
▁challenges	-10.8351
▁늘	-10.8352
록	-10.8352
▁survey	-10.8354
▁pp	-10.8355
ier	-10.8356
▁holds	-10.8357
▁승인	-10.836
▁decide	-10.8361
▁국회	-10.8366
long	-10.8367
▁plenty	-10.837
▁필요가	-10.8373
▁watching	-10.838
명을	-10.838
▁활용	-10.8383
▁중인	-10.8383
▁winner	-10.8384
▁Francisco	-10.8386
▁Williams	-10.8387
▁천	-10.839
▁dance	-10.8394
uc	-10.8394
▁Ltd	-10.8396
스타	-10.8396
▁학습	-10.8399
▁nor	-10.84
▁posts	-10.8401
▁의한	-10.8402
▁sister	-10.8404
▁설명	-10.8409
향	-10.8415
▁install	-10.8418
▁Load	-10.8421
▁calling	-10.8426
인터넷	-10.8426
▁ride	-10.8426
▁causes	-10.8427
di	-10.8431
▁secondary	-10.8432
▁repair	-10.8434
▁define	-10.8434
▁locations	-10.8437
▁대하여	-10.8448
경기	-10.8448
▁division	-10.8451
▁좋다	-10.8452
Handler	-10.8453
골	-10.8453
▁documents	-10.8456
▁Italy	-10.8457
보다는	-10.8458
▁Three	-10.8467
▁dinner	-10.847
▁출생	-10.8474
▁Contact	-10.8474
▁나라	-10.8476
▁accept	-10.8479
▁Γ	-10.848
▁즐길	-10.8486
▁turns	-10.8486
▁stated	-10.8488
▁Fire	-10.8489
▁asking	-10.849
▁센터	-10.8492
▁plot	-10.8495
▁technique	-10.8496
▁sharing	-10.8497
dy	-10.8501
▁미디어	-10.8504
▁agent	-10.8507
▁Android	-10.8507
▁못하고	-10.8508
부천	-10.8512
▁룰렛	-10.8517
▁말한다	-10.852
▁Bob	-10.8521
색	-10.8522
✓	-10.8523
au	-10.8524
run	-10.8526
▁Championship	-10.8527
함으로써	-10.8528
GB	-10.8529
▁lpe	-10.8529
▁삶을	-10.8531
▁이유	-10.8533
▁measures	-10.8537
▁도움을	-10.8537
▁counter	-10.8542
den	-10.8543
▁boy	-10.8543
▁Southern	-10.8544
["	-10.8544
▁낮은	-10.8554
▁채용	-10.8556
▁unless	-10.8557
ni	-10.8558
▁Right	-10.8564
▁vision	-10.8565
▁earned	-10.8565
▁measured	-10.8569
ize	-10.8569
▁sit	-10.8571
▁explore	-10.8572
\\	-10.8575
▁lpb	-10.8577
▁정의	-10.858
▁teachers	-10.8583
▁deliver	-10.8584
▁인증	-10.8586
▁Sam	-10.8587
▁업데이트	-10.8591
▁yards	-10.8592
▁프로그램을	-10.8596
▁courses	-10.8597
▁선물	-10.8599
▁공	-10.86
▁replace	-10.8601
▁남성	-10.8602
▁installed	-10.8609
홍	-10.8609
▁차량	-10.8609
▁기술을	-10.8611
With	-10.8612
OK	-10.8614
▁identity	-10.8616
▁Jack	-10.8617
▁편	-10.862
▁campus	-10.862
url	-10.8622
▁시대	-10.8632
▁Dan	-10.8636
▁사고	-10.8641
방송	-10.8642
되면서	-10.8642
▁수상	-10.8645
막	-10.8647
케	-10.8648
▁USB	-10.865
▁사실을	-10.8653
▁힘을	-10.8656
▁글을	-10.8656
▁무료로	-10.8658
▁애	-10.8661
▁금	-10.8661
▁만들	-10.8661
▁과거	-10.8662
▁putting	-10.8665
▁consistent	-10.8666
▁향후	-10.867
▁doctor	-10.867
퍼	-10.8676
▁magnetic	-10.8679
▁경	-10.868
▁steel	-10.8681
▁Jim	-10.8681
▁equivalent	-10.8682
▁자연	-10.8682
▁자세한	-10.8682
By	-10.8684
▁설립	-10.8685
▁>=	-10.8697
▁체크인	-10.8702
▁Tour	-10.8704
message	-10.8708
▁velocity	-10.8718
▁experts	-10.8719
▁afternoon	-10.872
▁spaces	-10.8723
▁결혼	-10.8726
☆	-10.8727
▁Santa	-10.8728
se	-10.8732
▁설정	-10.8734
▁Republican	-10.8734
▁abstract	-10.874
▁meant	-10.8741
▁훨씬	-10.8747
▁연결	-10.8749
▁대부분의	-10.8753
▁cycle	-10.8753
▁journey	-10.8754
▁돈을	-10.8755
▁않아	-10.8756
▁eq	-10.8757
▁sex	-10.8757
▁Node	-10.876
▁암	-10.876
▁Maybe	-10.876
없이	-10.876
▁매년	-10.8761
▁officer	-10.8761
▁walking	-10.8763
▁<<	-10.8764
▁곧	-10.8765
▁trust	-10.8767
▁op	-10.8771
▁});	-10.8771
▁treat	-10.8772
▁emergency	-10.8774
▁⟩	-10.8775
▁adults	-10.8776
▁불구하고	-10.8776
)$$	-10.8778
▁입	-10.8779
▁눈에	-10.8781
▁Food	-10.8788
▁mark	-10.8789
▁importance	-10.8791
^^	-10.8792
촌	-10.8796
▁conducted	-10.8796
▁adult	-10.8796
맨	-10.88
걸	-10.8803
▁advance	-10.8806
▁cl	-10.8808
▁transition	-10.881
prepare	-10.8811
토토	-10.8812
▁detail	-10.8812
▁opinion	-10.8813
▁circle	-10.8813
▁forget	-10.8813
▁그동안	-10.8814
▁answers	-10.8818
▁노래	-10.8818
했다고	-10.8821
▁minor	-10.8823
▁DC	-10.8823
▁remained	-10.8823
▁기준으로	-10.8829
으며	-10.8832
▁Middle	-10.8835
▁긴	-10.8835
▁별	-10.8836
▁fuel	-10.8836
Level	-10.8837
▁종합	-10.8837
씨는	-10.8838
▁있어요	-10.8839
▁사람의	-10.884
더킹카지노	-10.8842
▁unknown	-10.8845
위원회	-10.8846
▁가까운	-10.8848
▁그들은	-10.8849
▁micro	-10.885
▁모집	-10.8853
▁mixed	-10.8867
▁회원	-10.8867
ey	-10.8868
▁aware	-10.887
▁expansion	-10.8871
▁approved	-10.8871
▁lcd	-10.8871
▁발전	-10.8874
author	-10.8876
▁studied	-10.8876
▁attended	-10.8877
▁depending	-10.8878
▁markets	-10.8879
▁ct	-10.8879
▁Energy	-10.8881
▁카톡	-10.8892
▁하는데	-10.8893
수원	-10.8898
▁payment	-10.8899
년에는	-10.89
▁extension	-10.8903
▁charged	-10.8904
▁이용해	-10.8904
▁대해서	-10.8907
▁사용하여	-10.8907
▁유명	-10.8911
▁찾을	-10.8911
▁forced	-10.8912
▁typical	-10.8913
되었습니다	-10.8916
▁recipe	-10.892
▁Jun	-10.8925
▁animal	-10.8931
▁Olympic	-10.8933
▁possibly	-10.8938
기술	-10.8944
▁이것은	-10.8949
▁미리	-10.8949
▁하다	-10.8952
▁inter	-10.8952
▁split	-10.8954
^{-	-10.8955
▁속에	-10.8956
▁내부	-10.8956
▁exact	-10.8956
▁Georgia	-10.8956
울	-10.896
▁generated	-10.896
위를	-10.8962
model	-10.8967
▁hearing	-10.8968
▁그들의	-10.897
▁selling	-10.8973
▁Americans	-10.8976
▁정부의	-10.8985
▁이해	-10.8987
▁없을	-10.8989
▁CA	-10.8989
▁actions	-10.899
MouseEvent	-10.899
▁수가	-10.8992
▁마련되어	-10.8993
▁HD	-10.8995
▁Early	-10.8995
▁surrounding	-10.8999
▁begins	-10.9001
▁커뮤니티	-10.9005
▁experiences	-10.9008
▁Asia	-10.901
loop	-10.9012
▁intended	-10.9014
▁Order	-10.9015
▁affected	-10.9015
▁visitors	-10.9016
▁해결	-10.9018
▁나와	-10.902
▁거쳐	-10.9023
▁경영	-10.9024
▁containing	-10.9028
result	-10.9031
▁faster	-10.9031
▁Place	-10.9034
▁fell	-10.9036
▁concerns	-10.9043
partial	-10.9045
faulty	-10.9046
▁estimated	-10.9049
▁Christ	-10.905
▁콜	-10.9051
▁왕	-10.9051
▁제한	-10.9053
이하	-10.9056
▁confidence	-10.9056
▁purchased	-10.906
♪	-10.9063
▁alumni	-10.9065
▁candidate	-10.907
▁썰	-10.9073
▁의미	-10.9075
▁결과를	-10.9078
tag	-10.9079
▁∘	-10.9081
▁charges	-10.9083
▁assume	-10.9084
▁efficient	-10.9085
▁automatically	-10.9089
▁Federal	-10.9089
port	-10.909
▁};	-10.9094
라면	-10.9096
EC	-10.9097
▁seemed	-10.9099
▁awarded	-10.91
▁검사	-10.9102
▁settings	-10.9103
▁writers	-10.9103
($	-10.9103
▁수출	-10.9105
▁만나	-10.9108
▁extensive	-10.9108
▁sensor	-10.9121
▁salt	-10.9122
▁external	-10.9122
함을	-10.9123
▁전시	-10.9125
▁되었습니다	-10.9127
▁것처럼	-10.9135
여행	-10.9136
▁ends	-10.9139
row	-10.9142
▁분류	-10.9144
▁tells	-10.9146
▁정부가	-10.9148
▁relative	-10.9151
▁용	-10.9152
▁attend	-10.9152
stars	-10.9154
▁cream	-10.9155
▁beach	-10.9158
하였습니다	-10.9159
▁dc	-10.916
▁바다	-10.9162
▁더불어	-10.9165
▁Senate	-10.9165
▁expensive	-10.9168
자의	-10.9168
▁공항	-10.9174
▁icon	-10.9174
£	-10.9175
im	-10.9175
▁MBC	-10.9178
▁contrast	-10.9179
▁acid	-10.9185
▁Cross	-10.9188
▁나온	-10.919
숙	-10.919
▁figures	-10.9194
ful	-10.9195
▁corporate	-10.9199
▁반면	-10.92
▁camp	-10.9203
▁관심이	-10.9206
미국	-10.9208
▁positions	-10.921
▁semi	-10.9218
▁casino	-10.9219
▁feedback	-10.9224
lo	-10.9225
▁drugs	-10.9225
▁대표는	-10.9226
▁flight	-10.9227
cc	-10.9228
▁describe	-10.9229
▁tracks	-10.9232
▁(!	-10.9232
▁나오는	-10.9238
ff	-10.9242
만큼	-10.9245
▁die	-10.9248
▁regional	-10.9249
American	-10.9251
▁script	-10.9252
▁considering	-10.9253
ina	-10.9257
▁참가	-10.9259
▁climate	-10.9263
title	-10.9263
▁PUBLIC	-10.9263
것	-10.9267
▁의료	-10.9269
▁assist	-10.9272
상품	-10.9274
check	-10.9277
light	-10.9281
▁앵벌이	-10.9283
▁감사합니다	-10.9283
▁없고	-10.9284
▁laws	-10.9284
▁일정	-10.9285
▁표현	-10.929
▁buying	-10.9292
▁Roman	-10.9292
▁represents	-10.9292
▁Henry	-10.9294
▁검증	-10.9295
▁설계	-10.9295
▁화	-10.9297
▁룰	-10.9298
▁Master	-10.93
▁Light	-10.9301
▁nuclear	-10.9302
▁Oh	-10.9304
▁있는지	-10.9313
▁fat	-10.9316
자는	-10.9317
▁디	-10.9317
▁Northern	-10.9321
▁appointed	-10.9322
▁Force	-10.9324
board	-10.9328
▁Children	-10.9328
속	-10.933
▁specifically	-10.9337
▁beauty	-10.9337
rm	-10.9341
▁educational	-10.9342
▁fix	-10.9344
▁origin	-10.9345
▁목	-10.9347
▁체험	-10.9348
▁상황	-10.9348
▁Search	-10.9351
prop	-10.9352
▁guest	-10.9353
▁관광	-10.9354
▁practices	-10.9354
▁pull	-10.9358
▁VALUE	-10.9358
▁nearby	-10.9358
▁장애인	-10.9363
▁저희	-10.9364
▁Level	-10.9365
▁mainly	-10.9371
▁비교	-10.9374
▁위에	-10.9376
▁있지	-10.9378
▁교통	-10.938
사이트	-10.9381
▁algorithm	-10.9381
app	-10.9383
▁proud	-10.9383
▁시작했다	-10.9387
▁러시아	-10.9388
beta	-10.9388
▁Avenue	-10.9392
Label	-10.9395
▁지정	-10.9396
▁당신의	-10.9398
▁Apr	-10.9401
▁exciting	-10.9404
▁planned	-10.9404
▁주택	-10.9407
▁programming	-10.9408
▁referred	-10.941
▁성공	-10.941
▁muscle	-10.9411
▁확인할	-10.9412
▁Route	-10.9412
▁전환	-10.9413
br	-10.9414
▁집중	-10.9414
▁vehicles	-10.9415
▁말이	-10.9415
▁Hospital	-10.9416
우리카지노	-10.9418
▁brings	-10.9418
▁팔	-10.9421
학년	-10.9429
▁뿐만	-10.9429
▁완전히	-10.9429
▁corresponding	-10.943
▁목록	-10.943
▁오래	-10.9431
▁consists	-10.9432
▁End	-10.9434
▁accepted	-10.9437
▁사람을	-10.9438
너	-10.944
▁exists	-10.9442
▁fee	-10.9443
ating	-10.9445
▁miss	-10.9445
▁가수	-10.9454
했을	-10.9458
▁religious	-10.9458
▁affect	-10.946
▁marriage	-10.9463
▁피해	-10.9464
갈	-10.9465
▁구조	-10.9465
jpg	-10.9468
▁holding	-10.9468
▁Port	-10.9468
▁frequently	-10.9471
▁지방	-10.9471
ee	-10.9476
▁featuring	-10.9478
▁luck	-10.948
▁gun	-10.9484
▁가능하다	-10.9484
▁교회	-10.9484
▁decisions	-10.9486
긴	-10.9487
▁Put	-10.9487
ham	-10.9489
▁사전	-10.9489
▁Pennsylvania	-10.949
나는	-10.9493
Height	-10.9495
▁baseball	-10.9497
position	-10.9498
▁SECTION	-10.9498
▁증가	-10.9499
▁비롯한	-10.95
▁Van	-10.9512
▁enjoyed	-10.9517
▁기획	-10.9518
나이키	-10.9519
▁vocals	-10.9519
▁블로그	-10.952
▁NO	-10.952
▁강조했다	-10.9521
▁investigation	-10.9523
하신	-10.9525
ford	-10.9528
▁license	-10.9529
rotmg	-10.953
▁recording	-10.953
ana	-10.9531
▁도입	-10.9531
▁NY	-10.9534
▁AI	-10.9535
▁Republic	-10.9535
mc	-10.9536
mo	-10.9538
시켜	-10.9545
▁committed	-10.9545
▁Night	-10.9551
▁math	-10.9551
▁professionals	-10.9552
msg	-10.9552
여관	-10.9552
▁실행	-10.9552
▁cultural	-10.9559
▁여기에	-10.9559
▁책을	-10.9562
Path	-10.9566
▁filter	-10.9567
▁근처	-10.9568
One	-10.957
▁silver	-10.9572
▁MP	-10.9576
▁increases	-10.9576
▁border	-10.9576
▁resource	-10.9577
▁scheduled	-10.9578
▁arrived	-10.9579
▁assistance	-10.9581
▁과정을	-10.9583
▁maintenance	-10.9584
하였고	-10.9589
▁이유로	-10.9589
When	-10.9591
▁truth	-10.9592
▁Download	-10.9593
suc	-10.9593
▁engineering	-10.9594
▁integral	-10.9594
▁transport	-10.9596
▁생각을	-10.9596
Mode	-10.9596
▁내용은	-10.9599
▁Systems	-10.9601
Is	-10.9603
▁bridge	-10.9603
▁Head	-10.9603
lambda	-10.9608
user	-10.9609
▁housing	-10.9612
▁Irish	-10.9617
▁λ	-10.962
▁manner	-10.9623
▁여름	-10.9627
▁자유	-10.9628
▁tickets	-10.9646
▁portion	-10.9646
ab	-10.9646
황금성	-10.9647
▁명의	-10.9647
▁예상	-10.9648
▁진짜	-10.965
▁후에	-10.9654
▁것과	-10.9654
▁패션	-10.9656
next	-10.9657
다가	-10.966
▁Report	-10.9663
▁총판	-10.9668
▁권	-10.967
▁하나님의	-10.9674
▁예를	-10.9676
▁covers	-10.9678
쇼	-10.968
분석	-10.9681
▁stone	-10.9682
▁유명한	-10.9684
했는데	-10.9684
▁formation	-10.9684
Group	-10.9692
▁represented	-10.9693
▁로마	-10.9696
▁Louis	-10.9697
▁OS	-10.9698
▁historical	-10.97
지를	-10.97
▁이용할	-10.9701
▁yesterday	-10.9702
김해	-10.9705
▁의원	-10.9705
▁mine	-10.9706
▁행	-10.9709
ard	-10.9709
주는	-10.9712
txt	-10.9715
▁연속	-10.9716
▁인사	-10.9719
▁시리즈	-10.9719
▁청	-10.9719
▁singer	-10.9719
▁청소년	-10.9723
가는	-10.9724
▁확장	-10.9725
▁commonly	-10.9728
▁촬영	-10.9729
▁침대	-10.9729
stage	-10.9734
▁peace	-10.9739
▁fellow	-10.9741
▁entered	-10.9742
목포	-10.9742
▁registered	-10.9743
▁Those	-10.9743
▁loan	-10.9744
▁Illinois	-10.9745
▁dream	-10.9745
▁성인	-10.9745
▁usual	-10.9747
▁수영장	-10.9749
▁한다고	-10.975
reponame	-10.9751
tree	-10.9753
▁Area	-10.9762
▁tournament	-10.9762
▁영	-10.9763
▁Major	-10.9765
▁missed	-10.9768
에서의	-10.977
▁brown	-10.9772
▁union	-10.9774
▁올림픽	-10.9775
만을	-10.9778
으로서	-10.9778
▁shift	-10.9779
ap	-10.9783
환경	-10.9786
▁Matt	-10.9787
▁최소	-10.9788
▁operator	-10.9798
▁청년	-10.9804
ex	-10.9806
mathcal	-10.9806
▁processing	-10.9807
▁enable	-10.9808
▁greatest	-10.9809
▁youth	-10.9811
방법	-10.9815
▁improvement	-10.9816
Frame	-10.9816
▁Saint	-10.982
esp	-10.9822
Instance	-10.9822
▁awesome	-10.9824
▁Field	-10.9824
▁있었던	-10.9825
▁serves	-10.9827
▁Which	-10.9828
▁seasons	-10.9829
▁피부	-10.983
▁삶의	-10.9831
▁tough	-10.9834
▁expert	-10.9835
▁Chief	-10.9835
▁Frank	-10.984
▁promote	-10.984
▁empty	-10.9843
▁Jewish	-10.9843
▁강한	-10.9847
▁none	-10.9847
▁resistance	-10.9848
▁absolutely	-10.9849
▁사이에	-10.9851
장을	-10.9851
▁differences	-10.9851
vec	-10.9853
date	-10.9854
그룹	-10.9855
▁과학	-10.9857
▁inspired	-10.9858
필	-10.986
▁lo	-10.986
언	-10.9862
▁pet	-10.9867
▁Station	-10.9871
▁continuous	-10.9871
▁경험을	-10.9872
▁En	-10.9873
▁readers	-10.9873
ok	-10.9873
기간	-10.9874
영화	-10.9881
처	-10.9883
Width	-10.9887
▁parking	-10.9887
▁못하는	-10.989
솔레어카지노	-10.9893
ous	-10.9894
▁policies	-10.9894
▁massive	-10.9896
▁valid	-10.9898
▁listen	-10.99
▁plastic	-10.99
▁eating	-10.9901
▁네트워크	-10.9904
▁collected	-10.991
곤	-10.9911
▁무선	-10.9914
▁Control	-10.9918
▁Columbia	-10.9921
▁앱	-10.9925
▁드립니다	-10.9926
▁문재인	-10.9927
▁jump	-10.9927
▁기회를	-10.9931
협회	-10.9932
▁비슷한	-10.9936
▁방식으로	-10.994
▁Kim	-10.9941
PC	-10.9941
곳	-10.9946
▁질	-10.9948
베	-10.9949
▁houses	-10.9949
▁broken	-10.9949
▁요리	-10.9952
▁segment	-10.9953
▁Instead	-10.9955
▁리조트	-10.9956
▁그린	-10.9956
▁동문	-10.9957
▁committee	-10.9957
▁matches	-10.9958
안전	-10.9958
▁caught	-10.9958
▁충분히	-10.9959
▁Jackson	-10.996
AP	-10.996
news	-10.9962
▁designs	-10.9963
이기	-10.9964
▁creation	-10.9964
▁mention	-10.9965
▁electronic	-10.9968
▁언어	-10.9969
▁Space	-10.9969
▁depth	-10.997
▁surgical	-10.997
듯	-10.9976
ankamagames	-10.9976
▁Olympics	-10.9978
▁properly	-10.9991
▁Plus	-10.9995
▁fund	-10.9995
▁drink	-10.9995
▁Object	-10.9998
▁DB	-10.9999
▁waste	-11
node	-11.0003
▁사업을	-11.0003
▁doubt	-11.0004
▁Per	-11.0005
입	-11.0007
▁마치	-11.0008
▁Coast	-11.0011
▁일반적으로	-11.0013
변	-11.0013
이기도	-11.0014
▁<=	-11.0016
▁없어	-11.0026
▁recovery	-11.0027
▁express	-11.0032
▁arm	-11.0033
▁reduction	-11.0037
같은	-11.004
하세요	-11.004
▁noise	-11.0042
▁Thus	-11.0046
▁File	-11.0046
▁responsibility	-11.0049
▁accurate	-11.0053
chi	-11.0058
하십시오	-11.006
ah	-11.006
▁decades	-11.0063
car	-11.0064
스포츠	-11.0064
▁취소	-11.0069
▁recognized	-11.0072
don	-11.0075
▁participants	-11.0075
▁일단	-11.0077
▁Source	-11.0079
▁pan	-11.008
▁Pacific	-11.0081
dx	-11.0082
output	-11.0083
▁debt	-11.0086
▁Size	-11.009
▁versions	-11.0091
At	-11.0093
▁serial	-11.0099
▁mental	-11.01
▁가정	-11.0107
▁있었습니다	-11.0108
였던	-11.0109
▁anywhere	-11.0111
▁comparison	-11.0111
들에	-11.0113
▁leg	-11.0114
▁지도	-11.0115
▁적이	-11.0116
▁현지	-11.0119
NO	-11.0126
▁잭팟	-11.0132
▁순간	-11.0134
▁누구나	-11.0136
▁요구	-11.0136
▁기반	-11.0136
세계	-11.0136
▁대해서는	-11.0136
코리아	-11.014
▁적	-11.0141
▁Whether	-11.0143
악	-11.0146
▁cheap	-11.0146
▁Joseph	-11.0146
▁Does	-11.0148
▁문제는	-11.0148
izing	-11.0149
▁※	-11.0153
▁regions	-11.0155
▁반대	-11.0155
▁Colorado	-11.0155
ated	-11.0156
▁Tim	-11.0156
▁sitting	-11.0157
ya	-11.0158
▁Sep	-11.0159
▁earth	-11.0162
▁통하여	-11.0162
ER	-11.0163
you	-11.0169
▁했습니다	-11.0172
▁Airport	-11.0173
▁boys	-11.0175
▁ordered	-11.0175
▁faculty	-11.0179
▁Care	-11.018
▁comfort	-11.0185
▁spin	-11.0185
▁설	-11.0186
▁syndrome	-11.019
▁compare	-11.0191
ke	-11.0191
▁fear	-11.0192
▁neck	-11.0193
▁dollars	-11.0195
scale	-11.0195
▁소프트웨어	-11.0197
▁직원	-11.0198
월부터	-11.0198
▁Human	-11.0198
▁Taylor	-11.0199
▁busy	-11.0202
▁Therefore	-11.0203
▁리그	-11.0203
▁issued	-11.021
▁candidates	-11.0211
▁Ryan	-11.0211
α	-11.0212
▁familiar	-11.0213
▁정부는	-11.0213
ise	-11.0215
last	-11.0218
▁Spring	-11.0226
ba	-11.0227
▁dress	-11.0227
xyz	-11.0228
!”	-11.0228
▁curve	-11.0229
▁먹는	-11.0229
▁앞	-11.023
병원	-11.023
▁Room	-11.0231
▁포함한	-11.0234
▁밖에	-11.0235
▁si	-11.0235
sh	-11.0237
▁milk	-11.0238
▁Mo	-11.0239
▁수입	-11.0243
▁hits	-11.0246
▁외국인	-11.0246
▁처음으로	-11.0247
json	-11.0248
▁필요하다	-11.0251
▁병	-11.0251
▁partners	-11.0252
}^	-11.0255
▁successfully	-11.0255
▁battery	-11.0257
이번	-11.0263
has	-11.0265
▁standing	-11.0265
art	-11.0273
▁receiving	-11.0277
사회	-11.0279
▁yellow	-11.0279
▁마을	-11.0279
hat	-11.028
▁finite	-11.0281
훈	-11.0282
▁만약	-11.0283
▁선거	-11.0283
▁generate	-11.0285
▁boat	-11.0286
▁LA	-11.0286
buffer	-11.0292
IN	-11.0292
▁싶다	-11.0293
▁calculate	-11.0294
▁■	-11.0295
▁AS	-11.0297
tan	-11.0301
▁participate	-11.0301
▁${\	-11.0307
+\	-11.0308
아이	-11.0311
▁열심히	-11.0312
▁movies	-11.0314
TO	-11.0315
▁×	-11.0315
▁이들은	-11.0315
▁explained	-11.0323
mode	-11.0324
▁faith	-11.0324
▁shipping	-11.0329
▁점을	-11.033
▁네이버	-11.0334
ists	-11.0338
ray	-11.0344
패	-11.0345
▁스타	-11.0345
▁빨리	-11.0347
▁installation	-11.0347
귀	-11.0349
▁thoughts	-11.035
▁windows	-11.0352
▁수밖에	-11.0353
ns	-11.0354
▁Notes	-11.0354
▁좋아하는	-11.0355
▁civil	-11.0357
▁totally	-11.0357
▁Local	-11.0363
▁Market	-11.0364
work	-11.0368
율	-11.0368
▁occurs	-11.0371
▁Spain	-11.0373
▁collaboration	-11.0374
ite	-11.0375
▁채널	-11.0376
담	-11.0377
▁좋습니다	-11.0381
▁새롭게	-11.0382
▁delivered	-11.0383
▁인간	-11.0386
res	-11.0389
++	-11.0389
▁깊은	-11.0391
▁아동	-11.0392
▁paint	-11.0392
▁possibility	-11.0398
▁자체	-11.04
book	-11.0401
▁scientific	-11.0402
▁Array	-11.0403
Last	-11.0406
▁prepare	-11.0416
충	-11.0416
▁준	-11.0418
▁회장	-11.0419
▁relationships	-11.0425
▁aspects	-11.0427
▁사상	-11.0435
▁fruit	-11.0435
IT	-11.0438
▁implementation	-11.0438
▁Name	-11.044
▁professor	-11.0441
에선	-11.0445
▁Theatre	-11.0446
▁initially	-11.0452
한다고	-11.0455
▁타고	-11.046
▁지금까지	-11.0462
▁closer	-11.0463
▁airport	-11.0464
책	-11.0468
▁Despite	-11.0472
▁규칙	-11.0478
▁bright	-11.0479
▁토	-11.0479
▁Queen	-11.048
▶	-11.0483
▁involving	-11.0487
▁구축	-11.0488
▁smart	-11.0489
space	-11.0493
▁Di	-11.0494
▁Wall	-11.0495
▁상승	-11.0495
▁solar	-11.0496
▁feed	-11.0498
▁법률	-11.0498
독	-11.0499
▁Hot	-11.0499
▁purposes	-11.05
▁shooting	-11.05
구리	-11.0501
▁친구	-11.0502
▁comprehensive	-11.0506
▁roll	-11.051
▁Mountain	-11.0517
button	-11.0517
마닐라	-11.052
대표	-11.0523
▁수는	-11.0525
FF	-11.0529
▁Amazon	-11.0534
▁조정	-11.0535
▁Key	-11.0538
▁Minnesota	-11.0538
하려는	-11.0539
▁graduate	-11.0544
▁뉴	-11.0545
▁snow	-11.0545
▁항공권	-11.0547
추	-11.055
▁letters	-11.0553
▁경험	-11.0557
▁계약	-11.0558
▁Start	-11.0558
▁expressed	-11.056
▁relation	-11.0561
▁mod	-11.0568
▁grew	-11.057
극	-11.0572
•	-11.0572
▁전쟁	-11.0575
▁아이폰	-11.0577
MS	-11.0578
▁Digital	-11.0579
graphics	-11.0585
▁producer	-11.0589
▁wonder	-11.059
▁AT	-11.059
▁drivers	-11.0594
play	-11.0598
▁지난달	-11.0599
▁consumers	-11.06
▁opposite	-11.0601
▁stopped	-11.0602
▁spectrum	-11.0605
ell	-11.0609
세대	-11.0612
▁differential	-11.0613
▁하였다	-11.0613
▁trouble	-11.0613
star	-11.0614
▁secret	-11.062
▁Professor	-11.062
예스카지노	-11.062
▁unsigned	-11.0623
▁tea	-11.0624
추천	-11.0627
▁officers	-11.063
Start	-11.0633
/*	-11.0634
▁Error	-11.0635
▁hole	-11.0639
▁젊은	-11.0641
하기로	-11.0642
▁Brian	-11.0642
▁사이	-11.0646
인천	-11.0649
▁flag	-11.0649
▁worldwide	-11.0651
▁inner	-11.0655
▁나무	-11.0655
▁Step	-11.0657
▁speech	-11.0658
▁council	-11.0658
▁outdoor	-11.0659
▁supporting	-11.0659
▁attached	-11.0666
▁번역	-11.0666
▁나를	-11.0667
▁NFL	-11.0668
▁indeed	-11.0669
▁#####	-11.067
▁Am	-11.0671
▁passing	-11.0672
되기	-11.0673
▁obvious	-11.0673
▁자신을	-11.0674
▁temp	-11.068
▁ingredients	-11.0683
let	-11.0684
▁fifth	-11.0689
▁actor	-11.0691
▁crime	-11.0696
▁사항	-11.0698
▁bigger	-11.07
관련	-11.0702
▁Δ	-11.0704
▁hundreds	-11.0704
하실	-11.0707
▁귀	-11.0708
▁occurred	-11.0708
Pos	-11.0708
document	-11.0712
▁충전	-11.0712
▁트럼프	-11.0714
▁latter	-11.0718
섭	-11.0719
건의	-11.072
++;	-11.072
▁답변	-11.073
▁Korean	-11.0731
▁bass	-11.0736
▁industrial	-11.0736
▁통해서	-11.0737
▁num	-11.0737
▁질문	-11.0737
(){	-11.0743
▁무단	-11.0743
Length	-11.0744
comm	-11.0746
탈	-11.075
▁plate	-11.0751
now	-11.0752
else	-11.0757
▁작가	-11.0757
▁aid	-11.0758
ip	-11.076
▁consumer	-11.0762
▁페이지	-11.0763
▁콘텐츠	-11.0763
▁구글	-11.0763
▁찾는	-11.0764
▁institutions	-11.0769
▁Integer	-11.077
▁강력한	-11.077
▁지급	-11.0771
▁integer	-11.0772
머	-11.0775
▁retail	-11.0776
▁southern	-11.0778
완	-11.078
▁percentage	-11.0782
▁Vol	-11.0784
▁Price	-11.0785
UI	-11.0788
Left	-11.0792
▁replacement	-11.0793
▁trans	-11.0795
▁저녁	-11.0796
▁tend	-11.0798
▁farm	-11.0798
▁앞에	-11.0799
Position	-11.08
▁Work	-11.0801
▁Jr	-11.0803
▁fantastic	-11.0803
▁updates	-11.0806
▁Member	-11.0807
▁believed	-11.0807
▁topics	-11.0809
▁sport	-11.0813
▁활성화	-11.0813
Game	-11.0814
▁stream	-11.0822
les	-11.0823
돌	-11.0823
▁zone	-11.0823
풍	-11.0823
▁bringing	-11.0824
▁아들	-11.0825
▁길을	-11.0826
▁Russia	-11.0827
▁Manager	-11.0827
▁있으니	-11.0828
▁중국에서	-11.0832
▁Photo	-11.0832
▁스마트폰	-11.0833
▁불법	-11.0834
▁diet	-11.0836
ms	-11.0838
친	-11.0842
연구	-11.0842
iv	-11.0845
Signal	-11.0846
▁전달	-11.0848
▁대통령은	-11.0848
Box	-11.085
nu	-11.0853
▁hardware	-11.0856
▁단지	-11.0856
▁cheese	-11.0856
▁대통령이	-11.0857
▁꽁	-11.0859
VO	-11.0863
▁seek	-11.0863
▁lt	-11.0864
sen	-11.0866
▁graphics	-11.0869
_{\	-11.0871
▁freedom	-11.0872
▁표준	-11.0875
분기	-11.088
▁bike	-11.088
▁최초로	-11.0881
▁없다는	-11.0886
▁Daniel	-11.0886
api	-11.0887
▁Students	-11.0887
の	-11.0889
▁efficiency	-11.089
▁picked	-11.089
▁concerned	-11.0892
▁그것을	-11.0893
▁theorem	-11.0896
▁테스트	-11.0899
나무	-11.0899
▁zif	-11.0902
▁중국의	-11.0903
▁encourage	-11.0904
▁효과를	-11.0909
▁ANY	-11.0911
▁주세요	-11.0914
▁assistant	-11.0915
▁Guide	-11.0916
▁chocolate	-11.0917
ted	-11.0917
▁revenue	-11.092
국가	-11.0923
예약금없는출장샵	-11.0923
▁orders	-11.0923
▁분야	-11.0927
라도	-11.0929
코인카지노	-11.0929
▁플랫폼	-11.093
▁accounts	-11.0931
ft	-11.0932
▁furniture	-11.0933
▁awards	-11.0934
▁대응	-11.0937
▁municipality	-11.0939
▁Wi	-11.0939
▁모습	-11.0943
▁achieved	-11.0945
▁우리나라	-11.0946
족	-11.0947
▁fly	-11.0948
▁Members	-11.0948
액	-11.0952
평가	-11.0957
▁Land	-11.0959
▁init	-11.096
▁dropped	-11.0962
▁이용하실	-11.0963
▁경쟁	-11.0964
▁〈	-11.0965
▁지역의	-11.0968
▁messages	-11.0973
▁errors	-11.0975
▁마음	-11.0975
출	-11.0976
▁보관	-11.0976
▁commitment	-11.0976
▁entirely	-11.0978
▁Official	-11.0978
▁Fox	-11.0979
▁losing	-11.0981
▁arts	-11.0983
▁사람들의	-11.0985
▁롤링	-11.0988
정책	-11.0989
ol	-11.0989
create	-11.0992
▁중이다	-11.0993
▁초기	-11.0998
step	-11.0999
기에	-11.1
▁수있는	-11.1
생활	-11.1001
▁코드	-11.1002
▁터미널	-11.1003
▁establishments	-11.1003
▁repeat	-11.1005
▁divided	-11.1007
▁taught	-11.1008
▁cable	-11.101
▁primarily	-11.1011
▁나타났다	-11.1012
▁aircraft	-11.1013
▁stable	-11.1014
▁●	-11.1016
▁bound	-11.1018
▁wild	-11.1019
개발	-11.102
▁feels	-11.1022
▁scan	-11.1023
▁사이즈	-11.1024
▁tag	-11.1025
▁재배포	-11.1026
▁전통	-11.1027
ino	-11.1027
▁competitive	-11.1029
▁chest	-11.103
php	-11.1032
▁무슨	-11.1032
▁공격	-11.1032
▁대출	-11.1034
def	-11.1035
보기	-11.1035
자료	-11.1036
group	-11.1036
language	-11.1037
▁Andrew	-11.1038
▁visiting	-11.1038
▁비디오	-11.1043
▁carbon	-11.1047
▁colour	-11.1048
▁supposed	-11.1055
▁왔다	-11.1058
▁advertising	-11.1059
ov	-11.106
녀	-11.1063
▁졸업	-11.1064
lim	-11.1072
▁technologies	-11.1072
▁limits	-11.1073
▁시절	-11.1074
▁Play	-11.1076
▁alert	-11.1077
▁odd	-11.1081
▁존재	-11.1081
parent	-11.1081
tic	-11.1083
▁scheme	-11.1084
요금	-11.1084
▁interior	-11.1085
▁완료	-11.1088
▁않으면	-11.1089
▁widely	-11.1093
▁상황에서	-11.1098
▁Fort	-11.11
▁draft	-11.11
하나	-11.1102
▁수행	-11.1105
▁realize	-11.1106
▁건축	-11.1108
▁lesions	-11.1108
▁stands	-11.1109
▁고급	-11.111
▁seeking	-11.111
mer	-11.1112
▁있으면	-11.1114
▁depends	-11.1116
▁interests	-11.1118
▁지속적으로	-11.112
▁Finally	-11.1122
▁crowd	-11.1125
싱	-11.1128
▁단체	-11.1129
▁closely	-11.113
냐	-11.1132
▁베	-11.1132
▁Version	-11.1133
▁provider	-11.1133
▁별도	-11.1133
번째	-11.1133
▁neighborhood	-11.1135
si	-11.1138
창원	-11.1141
▁순	-11.1145
강원도	-11.1147
▁dynamic	-11.1147
..."	-11.1148
▁entertainment	-11.115
▁choices	-11.1151
▁이하	-11.1153
아산	-11.1156
▁honor	-11.1156
▁agencies	-11.1157
▁감소	-11.116
▁fluid	-11.116
시키는	-11.1161
▁Sir	-11.1161
바다	-11.1164
▁발견	-11.1164
▁Following	-11.1165
cl	-11.1166
▁evaluation	-11.1168
▁discussed	-11.1169
xml	-11.117
▁여기서	-11.1171
↕	-11.1173
▁brands	-11.1173
▁lunch	-11.1173
▁Gallery	-11.1176
▁베트남	-11.1179
▁거리	-11.1179
▁소속	-11.118
▁Justice	-11.1185
▁suggests	-11.1186
▁음식	-11.1187
▁Auto	-11.1188
world	-11.119
▁원래	-11.119
하겠다	-11.1193
Container	-11.1193
▁mouth	-11.1195
▁Engineering	-11.1196
▁suit	-11.1199
)+	-11.1199
임을	-11.1203
▁비롯해	-11.1206
▁ml	-11.1208
▁Help	-11.1209
▁tested	-11.1209
▁야외	-11.121
자를	-11.1211
▁어린	-11.1212
Up	-11.1213
▁중에서	-11.1213
▁researchers	-11.1214
▁breakfast	-11.1216
▁기억	-11.1217
▁performing	-11.1218
▁cloud	-11.1222
▁patterns	-11.1226
▁concern	-11.1229
eq	-11.1229
▁medicine	-11.1234
▁쇼	-11.1236
▁Greek	-11.1236
익	-11.1237
related	-11.1239
▁mini	-11.1245
카지노하는곳	-11.1249
▁attacks	-11.1249
▁달러	-11.125
▁쓰는	-11.1251
='	-11.1255
▁Country	-11.1255
▁영업	-11.1257
▁Arizona	-11.1258
보험	-11.1258
▁dogs	-11.1259
▁procedures	-11.1259
∼	-11.1259
link	-11.1259
â	-11.1262
▁chemical	-11.1264
▁기대	-11.1264
▁차이가	-11.1265
▁감사	-11.1265
▁deals	-11.1265
▁strip	-11.1266
풀	-11.1266
▁마음이	-11.1267
▁실시	-11.1271
▁시민	-11.1272
ten	-11.1273
▁관리자	-11.1274
▁cat	-11.1276
▁CO	-11.1278
▁younger	-11.1283
▁worry	-11.1284
visible	-11.1284
니다	-11.1286
금융	-11.1287
▁mountain	-11.1291
▁Wales	-11.1292
▁imaging	-11.1292
ga	-11.1294
▁restaurants	-11.1295
▁Question	-11.1297
ud	-11.1297
▁apart	-11.1298
▁고용	-11.1299
▁ancient	-11.13
▁우승	-11.1301
▁Jul	-11.1301
▁이들	-11.1301
▁para	-11.1301
장은	-11.1304
])	-11.1306
▁dw	-11.1311
▁먹고	-11.1314
▁kabam	-11.1318
▁physics	-11.1319
캐츠비카지노	-11.1323
▁fees	-11.1324
▁넘어	-11.1324
▁봄	-11.1325
▁혁신	-11.1327
▁도로	-11.1328
▁breast	-11.1329
ps	-11.1332
ance	-11.1332
▁감	-11.1336
▁willing	-11.1337
ability	-11.1338
▁Still	-11.134
▁chicken	-11.134
앤	-11.1343
▁여행을	-11.1344
player	-11.1348
lan	-11.1349
▁hockey	-11.1349
▁Image	-11.1352
슈	-11.1356
최	-11.1356
마산	-11.1356
▁BC	-11.1357
▁공공	-11.1357
▁점점	-11.1357
▁제공하고	-11.1357
▁lies	-11.1357
▁edited	-11.1359
omega	-11.1359
▁보도	-11.1361
▁Week	-11.1366
▁peak	-11.1366
아바타게임	-11.1369
Matrix	-11.1372
▁조성	-11.1372
▁Toronto	-11.1373
▁linked	-11.1376
▁exposure	-11.1379
▁arms	-11.138
▁branch	-11.138
▁Keep	-11.1381
▁estimate	-11.1384
▁Winter	-11.1384
단계	-11.1385
▁Creek	-11.1386
Buffer	-11.1388
▁agents	-11.1391
▁injuries	-11.1392
기가	-11.1393
▁chart	-11.1393
▁suitable	-11.1393
▁bool	-11.1395
▁cutting	-11.1395
▁chapter	-11.1395
▁forum	-11.1395
▁acquired	-11.1404
So	-11.1404
▁worse	-11.1409
편집	-11.1411
za	-11.1411
카드	-11.1412
▁''	-11.1418
▁Four	-11.1418
▁valuable	-11.142
▁홍콩	-11.1423
-\	-11.1423
바카라하는곳	-11.1424
frame	-11.1425
nt	-11.1426
▁password	-11.1427
▁practical	-11.1429
▁cleaning	-11.143
회의	-11.1432
▁수술	-11.1433
▁그림	-11.1434
▁meat	-11.1437
db	-11.1437
▁stick	-11.1438
▁부품	-11.1441
▁strategies	-11.1443
▁Create	-11.1446
▁broad	-11.1446
CD	-11.1449
▁foundation	-11.1449
▁wearing	-11.1449
▁맞아	-11.1451
▁pragma	-11.1452
▁SBS	-11.1454
▁appreciate	-11.1456
▁listing	-11.1459
▁effectively	-11.1459
▁Bush	-11.146
▁raw	-11.1461
▁northern	-11.1463
town	-11.1463
인가	-11.1465
▁Eastern	-11.1467
▁데이터를	-11.1469
▁crew	-11.1471
speed	-11.1471
워	-11.1472
update	-11.1475
▁radius	-11.1477
▁∷	-11.1477
▁Square	-11.1482
▁prefer	-11.1483
▁iron	-11.1484
▁특징	-11.1485
main	-11.1487
▁BBC	-11.1489
춘천	-11.149
정선	-11.1498
▁Text	-11.1499
▁온도	-11.1501
▁변	-11.1506
▁brief	-11.1506
▁grown	-11.1507
status	-11.1507
▁wins	-11.151
▁Rose	-11.1512
섬	-11.1512
▁statistics	-11.1514
▁걸쳐	-11.1514
택	-11.1515
▁van	-11.1519
▁sections	-11.1519
▁그래도	-11.1523
▁conversation	-11.1525
▁협력	-11.1527
▁예술	-11.1529
▁subjects	-11.153
▁OK	-11.1532
▁의견을	-11.1533
▁사람들	-11.1534
▁interaction	-11.1536
≡	-11.1536
▁자리	-11.1537
▁innovative	-11.1538
▁공부	-11.1539
성이	-11.1539
▁Corporation	-11.1539
▁instructions	-11.154
▁예정	-11.154
▁연기	-11.1543
▁Philadelphia	-11.1543
▁decade	-11.1543
▁고려	-11.1548
Fi	-11.155
▁newspaper	-11.155
▁유리	-11.1553
▁알려져	-11.1554
리그	-11.1554
▁duration	-11.1554
▁투어	-11.1555
)))	-11.1555
▁enemy	-11.1556
▁rain	-11.1558
▁marked	-11.1558
▁UN	-11.1561
▁요청	-11.1561
▁indicate	-11.1563
ring	-11.1567
▁정확한	-11.1567
▁소비	-11.1569
▁시행	-11.157
▁실내	-11.1573
▁Senior	-11.1574
▁적극	-11.1575
▁voltage	-11.1576
▁Wilson	-11.1576
can	-11.1581
▁동물	-11.1581
▁particle	-11.1582
엘	-11.1587
▁Watch	-11.1587
Code	-11.1591
▁blocks	-11.1591
▁Max	-11.1593
▁인식	-11.1593
air	-11.1594
▁알게	-11.1595
»	-11.1596
Of	-11.1597
▁생각한다	-11.1597
▁Drive	-11.1597
사의	-11.1598
▁Daily	-11.1601
▁contained	-11.1603
call	-11.1605
▁Sub	-11.1606
End	-11.1608
몰	-11.1609
▁종	-11.161
없는	-11.1611
▁modified	-11.1611
DATA	-11.1612
▁민	-11.1612
▁bowl	-11.1613
▁citizens	-11.1615
올	-11.1616
▁supports	-11.1617
▁kill	-11.1619
▁contemporary	-11.1621
품	-11.1622
▁domestic	-11.1628
▁networks	-11.1628
▁birthday	-11.1629
▁Standard	-11.1632
▁Highway	-11.1632
균	-11.1633
⊙	-11.1633
▁광	-11.1634
▁전주	-11.1634
▁식품	-11.1636
some	-11.1636
▁interval	-11.1637
▁거리에	-11.1639
▁내에	-11.1644
▁창업	-11.1645
ada	-11.1646
바다이야기	-11.1649
tr	-11.1654
▁::	-11.1657
▁Ray	-11.1658
▁gene	-11.1659
마을	-11.166
ised	-11.166
▁제조사	-11.1664
inch	-11.1665
▁Executive	-11.1667
만의	-11.1667
월의	-11.1668
▁유통	-11.1668
▁Britain	-11.1671
▁스파	-11.1672
▁drama	-11.1672
▁pack	-11.1674
ker	-11.1674
network	-11.1675
▁calculated	-11.1675
▁clubs	-11.1679
▁실시간	-11.1679
보고	-11.1681
ung	-11.1682
만이	-11.1686
▁grant	-11.1686
▁perspective	-11.1689
▁shares	-11.1693
▁슬롯머신	-11.1693
▁얼마	-11.1695
▁실	-11.1696
▁부분	-11.1697
▁대표적인	-11.1697
??	-11.1698
▁꾸준히	-11.1698
▁Tony	-11.1699
▁지금은	-11.17
▁exam	-11.1701
▁Miller	-11.1701
▁삭제	-11.1704
▁dl	-11.1704
▁unable	-11.1707
▁Scotland	-11.1711
▁Democratic	-11.1712
▁기반으로	-11.1713
▁하면서	-11.1714
▁meal	-11.1716
호선	-11.1716
있다	-11.1716
권을	-11.172
▁주고	-11.172
다는	-11.172
▁infrastructure	-11.1721
▁통신	-11.1722
▁visible	-11.1722
Right	-11.1722
▁Box	-11.1723
▁Sound	-11.1723
ney	-11.1727
▁출처	-11.1728
ii	-11.1729
♡	-11.1729
ji	-11.173
▁길이	-11.1732
sigma	-11.1734
▁제일	-11.174
▁lesion	-11.1745
▁취업	-11.1746
▁functional	-11.1747
▁classical	-11.1748
▁Non	-11.1748
▁judge	-11.175
▁thin	-11.175
▁뉴욕	-11.1751
▁갖춘	-11.1752
▁walls	-11.1752
▁있어야	-11.1753
▁새로	-11.1753
▁Wood	-11.1755
ak	-11.1756
▁perfectly	-11.1759
ship	-11.176
})	-11.1765
▁게임을	-11.1766
IP	-11.1767
▁historic	-11.1769
▁규제	-11.177
▁∙	-11.1771
▁듣고	-11.1772
▁모습이	-11.1772
Player	-11.1773
▁regularly	-11.1773
조사	-11.1774
업체	-11.1775
▁골프	-11.1777
py	-11.1781
▁upcoming	-11.1783
body	-11.1785
▁dx	-11.1789
▁tip	-11.1792
▁가치를	-11.1792
▁routine	-11.1795
▁teeth	-11.1795
▁Personal	-11.1797
▁acting	-11.1799
▁사례	-11.1801
▁미니	-11.1805
교회	-11.1806
읍	-11.1816
▁사랑을	-11.1816
ix	-11.1816
ent	-11.1818
▁SNS	-11.182
돈	-11.1821
성급	-11.1827
▁Nat	-11.1833
▁겨울	-11.1834
▁exit	-11.1836
합	-11.1836
▁과정	-11.1836
▁acute	-11.1837
▁debate	-11.1838
dfrac	-11.1839
▁Server	-11.1843
▁momentum	-11.1844
▁noticed	-11.1845
▁liver	-11.1845
▁lovely	-11.1846
order	-11.1849
▁티	-11.1849
bo	-11.1852
"]	-11.1853
▁API	-11.1854
▁accident	-11.1855
▁PA	-11.1856
▁정리	-11.1856
▁oral	-11.1856
▁아닙니다	-11.1857
▁좋아	-11.1858
е	-11.1859
▁turning	-11.186
▁urban	-11.186
▁은행	-11.1861
PM	-11.1864
▁₩	-11.1865
뿐	-11.1866
Access	-11.1866
▁창	-11.1866
▁integrated	-11.1867
▁trading	-11.1867
▁organic	-11.1869
▁moves	-11.187
존	-11.1871
▁Asian	-11.1872
mi	-11.1873
//	-11.1873
▁레스토랑	-11.1881
▁이탈리아	-11.1882
▁actors	-11.1884
▁{\	-11.1885
▁expand	-11.1887
▁장기	-11.1892
▁시작한	-11.1893
▁specified	-11.1893
하려면	-11.1894
"));	-11.1896
씩	-11.1896
▁paying	-11.1897
▁violence	-11.1897
Date	-11.1897
▁Davis	-11.1899
▁교수는	-11.1899
▁곳에	-11.19
Val	-11.1901
▁newly	-11.1902
▁맞춰	-11.1904
]]	-11.1904
▁rear	-11.1904
▁imagine	-11.1904
경영	-11.1905
▁앞두고	-11.1907
▁하여	-11.1907
거리	-11.1909
▁저장	-11.1909
▁민간	-11.1911
▁Kansas	-11.1915
투자	-11.1917
▁papers	-11.1917
ger	-11.1918
▁dining	-11.1921
▁솔루션	-11.1922
▁계산	-11.1928
▁Career	-11.1929
Do	-11.1929
▁앞에서	-11.1932
▁du	-11.1932
▁되	-11.1933
REPM	-11.1934
▁Massachusetts	-11.1936
♦	-11.1936
▁buffer	-11.1937
▁안녕하세요	-11.1938
대상	-11.1938
▁상황을	-11.1939
WHITE	-11.194
▁parallel	-11.1941
단체	-11.1941
−	-11.1941
▁remote	-11.1941
▁URL	-11.1944
▁자리를	-11.1945
▁얻을	-11.1945
▁exclusive	-11.1947
▁제거	-11.1947
▁실험	-11.1948
▁만들고	-11.1953
▁치	-11.1954
▁western	-11.1957
▁employee	-11.1958
▁painting	-11.1958
ron	-11.1958
▁현황	-11.1958
▁relations	-11.1958
▁representation	-11.196
▁마무리	-11.1961
▁Total	-11.1965
▁inches	-11.1973
▁오랜	-11.1975
kin	-11.1976
▁atmosphere	-11.1979
Table	-11.1979
대출	-11.1984
▁retired	-11.1985
▁막	-11.1985
▁aim	-11.1985
▁추	-11.1989
▁surprise	-11.1989
▁hyper	-11.1991
▁demonstrated	-11.1992
▁mixture	-11.1993
▁manufacturing	-11.1993
▁나이	-11.1993
▁jmp	-11.1998
▁혼자	-11.2003
▁의원은	-11.2003
▁thread	-11.2004
reference	-11.2005
▁teach	-11.2009
▁응용	-11.2009
▁copies	-11.2012
▁criteria	-11.2014
▁flowers	-11.2015
▁talent	-11.2015
▁sheet	-11.2016
▁기업의	-11.202
▁접수	-11.202
남원	-11.2022
▁Track	-11.2023
▁강의	-11.2023
►	-11.2027
How	-11.2031
▁operated	-11.2032
▁cooking	-11.2034
▁강남	-11.2042
고등학교	-11.2043
▁소비자	-11.2046
▁수집	-11.2046
▁인물	-11.2047
▁Learn	-11.2048
▁경찰	-11.2049
▁소리	-11.205
▁Though	-11.2051
▁lights	-11.2052
yn	-11.2056
▁scoring	-11.2058
▁sta	-11.2059
screen	-11.2061
Int	-11.2063
dt	-11.2069
▁sexual	-11.207
▁chronic	-11.2071
▁integration	-11.2071
Status	-11.2071
▁Prince	-11.2072
쿠	-11.2072
▁cent	-11.2075
▁personnel	-11.2078
▁derived	-11.2081
▁existence	-11.2082
▁않도록	-11.2082
▁worst	-11.2083
▁Description	-11.2085
▁Bridge	-11.2085
운동	-11.2086
:||	-11.2087
▁discover	-11.2088
▁Garden	-11.209
▁돌	-11.2091
▁crisis	-11.2091
▁쓴	-11.2094
▁hence	-11.2094
▁Studies	-11.2095
▁xs	-11.2097
Out	-11.2102
▁managers	-11.2102
▁ticket	-11.2103
▁기관	-11.2105
▁Way	-11.2109
▁Railway	-11.2109
▁reflect	-11.2111
▁이번에	-11.2111
▁프리미엄	-11.2113
으면	-11.2113
ON	-11.2115
▁singles	-11.2117
▁관계를	-11.2119
▁Did	-11.2121
▁화이트	-11.2124
▁Lady	-11.2126
▁diseases	-11.2127
정읍	-11.2128
▁sizes	-11.2128
con	-11.2129
▁festival	-11.2131
양양	-11.2133
▁의사	-11.2133
▁병원	-11.2136
center	-11.2136
▁tab	-11.2139
▁들고	-11.2141
하였으며	-11.2142
▁대체	-11.2143
▁세트	-11.2143
국제	-11.2143
▁못했다	-11.2144
▁App	-11.2144
▁Band	-11.2144
▁EU	-11.2146
▁상태	-11.2147
▁virus	-11.2147
MB	-11.2149
▁pure	-11.2153
▁문자	-11.2154
▁느낄	-11.2154
▁드	-11.2154
▁Chapter	-11.2154
ial	-11.2155
They	-11.2157
▁virtual	-11.2158
Display	-11.2158
▁투	-11.2161
▁때까지	-11.2161
▁politics	-11.2162
안동	-11.2162
헌	-11.2162
image	-11.2163
▁Ford	-11.2164
大	-11.2165
▁넘는	-11.2167
▁monthly	-11.2168
제주도	-11.2168
▁reliable	-11.217
▁causing	-11.217
ek	-11.2172
이었던	-11.2174
><	-11.2175
▁통	-11.2175
▁websites	-11.2175
hi	-11.2176
▁normally	-11.2177
▁관심	-11.2177
▁spirit	-11.2177
berg	-11.2178
▁Professional	-11.218
▁내년	-11.2182
▁titles	-11.2182
▁Action	-11.2184
▁assessment	-11.2186
여자	-11.2193
▁channels	-11.2194
▁딱	-11.2195
▁del	-11.2197
해외	-11.2199
ball	-11.2199
▁dates	-11.22
ster	-11.2204
▁introduction	-11.2204
▁때문입니다	-11.2205
▁야구	-11.2206
▁Ed	-11.2208
▁이용한	-11.221
▁im	-11.221
Address	-11.2216
▁Civil	-11.2217
렌	-11.2217
▁stack	-11.2219
▁telling	-11.222
ik	-11.2221
▁Houston	-11.2224
▁옵션	-11.2226
▁quantum	-11.2227
▁제안	-11.2227
▁생	-11.2227
▁returning	-11.2227
▁Bo	-11.2228
▁MS	-11.223
her	-11.2234
ping	-11.2238
▁ourselves	-11.2239
▁drawing	-11.224
▁shots	-11.2241
▁banks	-11.2244
▁ENDIF	-11.2245
stop	-11.2246
▁진출	-11.225
▁클라우드	-11.2253
▁[...]	-11.2253
▁메	-11.2256
▁giant	-11.2256
▁detected	-11.2256
▁크기	-11.2257
▁Op	-11.2258
▁Golden	-11.226
▁대딸방	-11.226
▁architecture	-11.2261
low	-11.2263
▁지원을	-11.2263
grid	-11.2263
▁doors	-11.2265
▁evolution	-11.2265
▁예방	-11.2266
▁Secretary	-11.2271
▁convert	-11.2272
▁rotation	-11.2272
▁organized	-11.2275
▁Mobile	-11.2276
▁Building	-11.228
이라면	-11.228
▁Staff	-11.229
▁cuts	-11.2292
zero	-11.2293
▁facing	-11.2293
▁con	-11.2299
▁MD	-11.2302
▁사기	-11.2302
▁Prime	-11.2302
▁상황이	-11.2303
▁fabric	-11.2303
▁sec	-11.2303
▁speaking	-11.2303
경주	-11.2304
Action	-11.2304
▁Pan	-11.2305
▁mail	-11.2305
▁포장	-11.2306
▁hosted	-11.231
pa	-11.231
▁kinds	-11.2311
}=	-11.2312
▁saving	-11.2313
궁	-11.232
delta	-11.2321
▁Small	-11.2327
μ	-11.2328
▁같아요	-11.233
month	-11.2333
▁reporting	-11.2337
▁Navy	-11.2339
▁Site	-11.2342
▁Con	-11.2345
▁주제로	-11.2345
!)	-11.2346
Result	-11.2348
▁판	-11.2348
▁impressive	-11.235
▁contest	-11.235
▁곳이	-11.235
▁thick	-11.2353
려고	-11.2357
▁Forest	-11.2359
별로	-11.2359
▁용어	-11.2363
▁NEW	-11.2364
▁출연	-11.2366
▁따로	-11.2366
▁championship	-11.2366
clear	-11.2369
▁Books	-11.2373
▁experiment	-11.2374
that	-11.2374
▁chair	-11.2376
▁행동	-11.2377
▁shoes	-11.2378
▁구입	-11.2379
Input	-11.238
ang	-11.238
▁Li	-11.2381
화성	-11.2381
▁살고	-11.2383
▁fighting	-11.2383
▁moments	-11.2384
▁formal	-11.2393
▁철도	-11.2394
오피	-11.2395
▁Miami	-11.2396
mann	-11.2398
넷	-11.2399
학회	-11.2399
▁개인정보	-11.2399
Str	-11.24
▁다소	-11.2401
▁truck	-11.2401
▁선발	-11.2402
^{\	-11.2403
▁comedy	-11.2404
▁플레이	-11.2404
▁bi	-11.2404
▁Supreme	-11.2405
▁그리	-11.2406
Max	-11.2409
application	-11.241
▁trained	-11.241
▁나서	-11.241
▁최저가	-11.2413
▁alcohol	-11.2414
▁desire	-11.2414
▁Through	-11.2415
▁submit	-11.2415
▁경우는	-11.2415
▁Base	-11.2416
▁measurement	-11.2418
▁종료	-11.2418
▁Support	-11.2418
▁vice	-11.2422
▁마음에	-11.2427
number	-11.2429
▁somewhat	-11.2429
도시	-11.243
ci	-11.2431
▁후보	-11.2435
▁울산	-11.2438
▁fairly	-11.2441
ea	-11.2441
용인	-11.2441
염	-11.2444
▁작업을	-11.2444
▁베팅	-11.2444
draw	-11.2446
▁permanent	-11.2446
▁mom	-11.2446
여성	-11.2447
▁레	-11.245
▁capture	-11.2452
▁monitor	-11.2455
검사	-11.2456
▁reset	-11.2456
ti	-11.2459
▁Try	-11.2468
root	-11.2468
▁reasonable	-11.2469
▁멋진	-11.2471
▁designer	-11.2476
▁bodies	-11.2476
▁era	-11.2477
wa	-11.2478
▁sessions	-11.2479
▁Student	-11.2479
▁registration	-11.2481
팅	-11.2483
적이고	-11.2483
▁Memorial	-11.2483
▁뭐	-11.2484
ki	-11.2484
round	-11.2485
▁제공됩니다	-11.2485
▁contribution	-11.2486
▁immediate	-11.2488
▁ff	-11.249
▁rating	-11.249
▁sauce	-11.2491
▁butter	-11.2492
▁Kevin	-11.2493
▁편집	-11.2494
▁필수	-11.2495
▁시스템을	-11.2495
였습니다	-11.2496
▁빈	-11.2497
known	-11.2498
▁kg	-11.2499
▁controlled	-11.2501
▁Plan	-11.2502
click	-11.2503
▁세상을	-11.2503
▁Event	-11.2503
ret	-11.2503
▁Run	-11.2503
▁프리	-11.2504
▁principal	-11.2504
▁golf	-11.2506
라스베가스	-11.2506
▁offset	-11.2507
치료	-11.2508
▁sp	-11.251
▁장비	-11.251
▁edit	-11.2513
Read	-11.2515
▁bio	-11.2516
▁목적으로	-11.2516
▁zcl	-11.2518
▁Edition	-11.2518
▁Jeff	-11.252
▁전문가	-11.2525
▁인간의	-11.2527
▁outcome	-11.2527
▁wire	-11.2531
▁Unit	-11.2533
ini	-11.2533
▁훈련	-11.2538
▁statements	-11.2539
밀	-11.254
로는	-11.2541
▁publication	-11.2541
갑	-11.2542
▁전재	-11.2543
▁대화	-11.255
▁버스	-11.2551
ities	-11.2553
▁Latin	-11.2553
▁assets	-11.2555
▁Hong	-11.2561
▁수업	-11.2561
▁coast	-11.2567
▁Oregon	-11.2569
▁씨	-11.2569
▁LCD	-11.257
▁개요	-11.257
▁respond	-11.257
version	-11.2572
▁measurements	-11.2572
▁AC	-11.2574
▁정상	-11.2575
▁delicious	-11.2579
◑	-11.2579
▁도쿄	-11.2582
▁weak	-11.2582
▁horse	-11.2582
◐	-11.2582
▁변화를	-11.2583
▁fishing	-11.2585
▁수사	-11.2588
시는	-11.2593
▁abuse	-11.2599
▁solo	-11.2599
▁cake	-11.2601
▁xmm	-11.2601
▁ax	-11.2601
조차	-11.2603
▁Very	-11.2604
Timer	-11.2607
▁Model	-11.2607
▁말이다	-11.2608
▁했던	-11.2609
▁claimed	-11.2609
form	-11.2609
▁가치	-11.2611
▁assigned	-11.2612
공주	-11.2614
큐	-11.2615
▁최선을	-11.2616
▁알려진	-11.2617
▁visited	-11.2618
▁Access	-11.2622
▁exception	-11.2622
▁주식	-11.2625
제품	-11.2625
▁짧은	-11.2625
▁Write	-11.2627
▁taxes	-11.2629
▁strongly	-11.2634
슨	-11.2634
▁Mount	-11.2636
▁incident	-11.2636
send	-11.2637
▁복	-11.2637
First	-11.2639
시스템	-11.264
▁maps	-11.2641
▁바란다	-11.2641
▁meetings	-11.2642
Bar	-11.2642
▁Simon	-11.2644
▁iPad	-11.2645
▁잠시	-11.2647
▁clock	-11.2649
ref	-11.265
쪽	-11.265
▁Wisconsin	-11.2653
립	-11.2656
▁circuit	-11.2656
ola	-11.266
되었고	-11.2662
▁passes	-11.2665
▁weekly	-11.2665
▁criminal	-11.2668
▁trend	-11.2668
시에	-11.2671
술	-11.2672
▁approval	-11.2672
페	-11.2673
▁factory	-11.2673
▁observations	-11.2673
▁diagnosed	-11.2673
▁세상	-11.2673
▁operate	-11.2674
▁보였다	-11.2677
▁배터리	-11.2677
}}$	-11.268
▁categories	-11.2681
water	-11.2684
▁인구	-11.2685
▁configuration	-11.2688
▁기초	-11.2689
▁obj	-11.2689
▁평화	-11.2689
▁filed	-11.2693
▁독립	-11.2693
▁symbol	-11.2693
▁characteristics	-11.2699
XML	-11.2702
ck	-11.2702
버스	-11.2707
▁happening	-11.271
▁요	-11.2712
▁점에서	-11.2713
▁Look	-11.2717
▁beer	-11.2718
▁상당히	-11.2722
▁constructed	-11.2723
▁particles	-11.2724
btn	-11.2727
▁Administration	-11.2728
▁힘든	-11.2731
▁중심	-11.2731
▁^^	-11.2734
▁가격으로	-11.2735
▁disk	-11.2738
▁제도	-11.2738
instance	-11.2738
▁Kong	-11.2739
mp	-11.2741
▁Fair	-11.2741
▁라이브	-11.2742
▁languages	-11.2746
▁품질	-11.2746
▁기존의	-11.2747
▁lda	-11.2748
▁involvement	-11.2748
▁partnership	-11.275
▁하이	-11.2751
▁모두가	-11.2752
▁얼굴	-11.2752
하려고	-11.2754
▁뛰어난	-11.2755
리스	-11.2757
▁expertise	-11.2758
high	-11.2759
▁concert	-11.276
▁apartment	-11.2761
▁절대	-11.2761
==	-11.2763
▁chose	-11.2763
▁dis	-11.2764
Reference	-11.2765
▁partial	-11.2769
▁방법은	-11.2772
▁것이라는	-11.2773
▁이기는	-11.2776
▁클럽	-11.2777
▁axis	-11.2778
Add	-11.2778
▁상호	-11.2778
▁authorities	-11.2779
math	-11.278
▁위험	-11.2782
▁fail	-11.2783
▁딸	-11.2786
Star	-11.2789
▁diameter	-11.2791
▁monitoring	-11.2794
▁태	-11.2796
▁compliance	-11.2797
▁impossible	-11.2798
▁Adam	-11.2799
▁Camp	-11.2801
가격	-11.2802
Offset	-11.2806
▁경주	-11.2807
▁일자리	-11.2807
ByteArray	-11.2809
▁contribute	-11.2809
▁Given	-11.2812
▁acts	-11.2813
▁완벽한	-11.2814
▁compact	-11.2816
▁ages	-11.2817
가족	-11.282
Delta	-11.2821
tab	-11.2823
bi	-11.2825
▁Seattle	-11.2825
▁측정	-11.2826
▁Tech	-11.2828
▁largely	-11.2829
톤	-11.2831
float	-11.2831
▁섬	-11.2832
▁항공	-11.2833
♨	-11.2833
전자	-11.2833
▁knowing	-11.2834
▁다운	-11.2834
▁roles	-11.2835
▁outstanding	-11.2835
▁회복	-11.2836
ub	-11.2837
▁coaches	-11.2839
▁vertical	-11.284
▁investors	-11.2841
▁그녀는	-11.2841
년이	-11.2842
▁Battle	-11.2846
▁Bell	-11.2849
bin	-11.2852
▁Unfortunately	-11.2854
▁tight	-11.2856
▁테이블	-11.286
▁보장	-11.2864
config	-11.2864
♣	-11.2867
▁말하는	-11.2869
▁Abstract	-11.2869
▁broadcast	-11.2872
▁Story	-11.2872
▁Miss	-11.2872
▁labor	-11.2872
▁tomorrow	-11.2872
▁표	-11.2874
▁Edward	-11.2874
yl	-11.2875
▁가을	-11.2876
▁bread	-11.2877
▁authority	-11.288
▁벌	-11.288
▁des	-11.2881
▁capable	-11.2885
home	-11.2887
https	-11.2887
▁Diego	-11.2888
▁prison	-11.2888
▁aspect	-11.2891
▁removal	-11.2892
col	-11.2894
▁즉시	-11.2895
▁쉬운	-11.2897
학과	-11.2898
}}{	-11.2899
▁url	-11.2899
▁seats	-11.29
der	-11.2902
π	-11.2902
▁contributions	-11.2903
▁우수	-11.2905
▁향	-11.2913
▁affordable	-11.2913
▁Product	-11.2914
▁놓고	-11.2915
▁Stephen	-11.2917
▁carefully	-11.2919
▁하나로	-11.2921
▁Lewis	-11.2921
▁존	-11.2922
▁정원	-11.2924
지구	-11.2925
▁Short	-11.2925
▁조회수	-11.2926
fi	-11.2927
▁노동	-11.2928
필리핀	-11.293
INT	-11.293
addChild	-11.2931
▁matters	-11.2933
▁herself	-11.2933
▁drawn	-11.2934
▁과연	-11.2934
▁부분이	-11.2934
▁guarantee	-11.2934
▁railway	-11.2935
▁야	-11.2937
▁covering	-11.2937
▁이제는	-11.294
▁Alex	-11.294
▁episodes	-11.2943
▁인정	-11.2943
일산	-11.2944
▁extend	-11.2945
▁lists	-11.2945
▁persons	-11.2947
위에	-11.2949
▁destination	-11.2949
⇪	-11.295
▁roof	-11.295
▁매출	-11.295
▁진단	-11.2951
▁보내	-11.2951
Our	-11.2952
제도	-11.2953
▁bathroom	-11.2955
▁goods	-11.2957
▁높이	-11.2958
▁preparation	-11.2961
▁Dutch	-11.2962
▁함	-11.2963
▁케이블	-11.2964
김제	-11.2964
▁collect	-11.2966
▁Later	-11.2966
▁granted	-11.2966
▁alongside	-11.2967
▁invited	-11.2967
▁Scottish	-11.2968
That	-11.2969
▁Las	-11.2969
←	-11.2969
▁안에서	-11.297
▁superior	-11.2971
▁Further	-11.2971
▁lake	-11.2971
▁매장	-11.2972
▁liquid	-11.2973
▁presents	-11.2973
▁indicated	-11.2975
탑	-11.298
▁중단	-11.298
▁supplies	-11.2981
▁Studio	-11.2982
client	-11.2985
▁Stone	-11.2986
▁transform	-11.2988
▁fraction	-11.299
▁Player	-11.2991
▁transportation	-11.2991
▁capabilities	-11.2992
win	-11.2992
▁앨범	-11.2992
▁̈	-11.2993
hour	-11.2993
▁서울시	-11.2994
▁쓸	-11.2996
▁apps	-11.2999
▁숙소	-11.3001
▁Dave	-11.3003
활동	-11.3004
▁팬	-11.3005
▁ultimately	-11.3005
▁그를	-11.3006
η	-11.3006
▁Ball	-11.3007
▁Word	-11.301
▁offices	-11.3013
▁국회의원	-11.3013
▁내에서	-11.3014
▁bits	-11.3015
▁Section	-11.3017
▁Ten	-11.3022
▁situations	-11.3025
▁관	-11.3025
▁earn	-11.3027
util	-11.3029
EventListener	-11.3029
↺	-11.3029
▁시도	-11.3033
▁윈도우	-11.3034
▁Sydney	-11.3034
▁soil	-11.3035
life	-11.3036
전략	-11.3038
▁장소	-11.3039
☼	-11.3041
시킬	-11.3043
nativeObject	-11.3044
▁laboratory	-11.3045
▁Eric	-11.3046
ium	-11.3046
▁환자	-11.3046
vo	-11.3047
ins	-11.305
사랑	-11.305
▁목표	-11.3051
▁folks	-11.3053
β	-11.3054
({	-11.3055
▁NC	-11.3056
▁Card	-11.306
▁여기	-11.306
▁PS	-11.3061
▁Sciences	-11.3061
▁보험	-11.3062
▁Heart	-11.3064
▁건물	-11.3065
▁foods	-11.3071
▁Trade	-11.3071
↔	-11.3073
UP	-11.3073
▁winners	-11.3075
었습니다	-11.3075
▁planet	-11.3076
▁Iran	-11.3077
▁ms	-11.3079
▁Item	-11.3079
▁artery	-11.3081
▁Hotels	-11.3081
라인	-11.3088
▁아는	-11.3088
DisplayObject	-11.3088
▁spoke	-11.3089
▁겸	-11.309
▁연장	-11.3091
▁확산	-11.3092
축	-11.3093
unit	-11.3093
▁membership	-11.3094
ε	-11.3096
사가	-11.3097
▁adds	-11.3097
다고	-11.3099
▁최초의	-11.31
▁분들이	-11.3103
▁distinct	-11.3103
▁캐나다	-11.3104
▁informed	-11.3104
대를	-11.3104
▁쓰	-11.3107
⇩	-11.3107
buffers	-11.3109
겠다	-11.3109
▁enhance	-11.311
▁노력	-11.3111
▁쇼핑	-11.3111
▁전망	-11.3111
▁완성	-11.3111
이용	-11.3112
**	-11.3113
▁experimental	-11.3114
hand	-11.3115
기사	-11.3115
AM	-11.3118
▁producing	-11.3119
▁ongoing	-11.312
▁상황에	-11.312
▁composed	-11.312
▁scores	-11.3124
)|	-11.3125
▁받지	-11.3125
▁시티	-11.3125
▁Silver	-11.3125
▁expr	-11.3128
▁abdominal	-11.3128
stream	-11.3129
ator	-11.313
▁않게	-11.3131
▁awareness	-11.3131
▁roots	-11.3134
▁Ontario	-11.3134
▁proved	-11.3134
▁serum	-11.3136
▁recognition	-11.3139
▁고민	-11.314
▁dangerous	-11.3143
▁browser	-11.3148
사는	-11.3149
이상	-11.3149
ν	-11.315
▁Tennessee	-11.3152
종합	-11.3153
▁우수한	-11.3154
▁programme	-11.3155
().	-11.3156
▁Song	-11.3157
▁이메일	-11.3159
연합뉴스	-11.3159
▁stored	-11.316
▁tradition	-11.3161
청주	-11.3161
▁Hollywood	-11.3161
▁누가	-11.3162
▁"";	-11.3163
▁국립	-11.3166
▁arrested	-11.3168
▁employment	-11.317
▁Medicine	-11.317
ERROR	-11.317
▁애니메이션	-11.3172
▁triangle	-11.3172
▁DNA	-11.3174
▁keeps	-11.3174
주년	-11.3178
▁copyright	-11.3178
▁Ar	-11.3179
▁지속	-11.3179
▁absence	-11.3181
ica	-11.3181
▁rank	-11.3182
▁dose	-11.3183
▁효과가	-11.3186
CO	-11.3186
▁hoping	-11.3187
▁Du	-11.3188
xff	-11.3189
Not	-11.3194
영주	-11.3194
▁마지막으로	-11.3196
▁카메라	-11.3197
기는	-11.3199
▁남북	-11.3201
▁Bible	-11.3202
상을	-11.3202
▁movq	-11.3205
▁내용이	-11.3206
▁Sometimes	-11.3207
▁Jean	-11.3207
▁Among	-11.3208
▁establish	-11.3208
▁Map	-11.3209
▁최초	-11.3213
▁downtown	-11.3214
Column	-11.3215
▁Hope	-11.3216
▁통일	-11.3217
▁Has	-11.3217
▁diverse	-11.3219
▁quiet	-11.3221
▁boundary	-11.3223
Context	-11.3226
결	-11.3227
▁Ma	-11.3228
▁Training	-11.3229
▁Color	-11.323
▁캐릭터	-11.3231
▁Indiana	-11.3232
▁operators	-11.3232
문의	-11.3233
런	-11.3235
▁gap	-11.324
▁bands	-11.324
▁Share	-11.3241
▁suffered	-11.3243
▁passion	-11.3244
▁Flash	-11.3244
▁의미를	-11.3246
▁king	-11.3246
isation	-11.3247
▁ad	-11.3247
▁sy	-11.3249
▁Ann	-11.3249
▁kid	-11.3249
▁mechanism	-11.3254
▁Yet	-11.3254
▁sat	-11.3254
'},	-11.3255
▁apparently	-11.3257
ρ	-11.3261
▁pulled	-11.3261
▁들어가	-11.3263
▁bedroom	-11.3263
▁wheel	-11.3267
▁셀프	-11.3267
FC	-11.3268
▁attorney	-11.327
▁있음	-11.3273
▁마련	-11.3274
▁검토	-11.3275
▁나온다	-11.328
▁tiny	-11.3281
▁주시기	-11.3282
▁displayed	-11.3282
▁예측	-11.3283
▁machines	-11.3284
▁museum	-11.3284
▁diabetes	-11.3285
▁따뜻한	-11.3286
▁realized	-11.3286
▁Mon	-11.3287
▁desired	-11.3288
▁최대한	-11.3289
▁funny	-11.329
빌	-11.329
▁쉽지	-11.329
▁Computer	-11.3293
▁submitted	-11.3293
")]	-11.3293
벌	-11.3295
디자인	-11.3297
▁주말	-11.3297
▁cook	-11.3297
▁Cat	-11.3298
▁accessible	-11.3299
▁decrease	-11.33
번호	-11.33
▁Victoria	-11.3301
▁Baseball	-11.3304
▁tube	-11.3304
rate	-11.3305
처리	-11.3306
▁언제	-11.3309
▁가득	-11.3312
▁inspiration	-11.3312
▁때마다	-11.3312
▁vital	-11.3318
▁Index	-11.3319
진해	-11.3319
▁발생하는	-11.3321
▁grand	-11.3323
▁printed	-11.3323
▁applicable	-11.3324
▁보수	-11.3325
▁희망	-11.3327
▁pitch	-11.3327
주택	-11.3328
▁손을	-11.3328
▁대통령의	-11.3329
▁legislation	-11.333
▁surprised	-11.333
▁saved	-11.3332
칠	-11.3332
▁dealing	-11.3332
▁지지	-11.3333
▁Pakistan	-11.3334
▁attempts	-11.3335
▁Having	-11.3338
▁비치	-11.3339
▁ray	-11.3339
Config	-11.334
▁kit	-11.3341
▁absolute	-11.3341
Texture	-11.3343
▁broke	-11.3344
공사	-11.3344
av	-11.3347
▁HP	-11.3348
▁talks	-11.3349
센	-11.3349
era	-11.3349
▁이때	-11.3352
회사	-11.3352
▁나왔다	-11.3352
▁Assert	-11.3353
▁Bowl	-11.3353
▁qualified	-11.3354
▁minimal	-11.3354
▁포인트	-11.3355
▁shell	-11.3355
고성	-11.3356
▁controls	-11.3356
##	-11.3357
했다는	-11.3359
ella	-11.3359
▁생각합니다	-11.3362
▁involves	-11.3363
▁racing	-11.3363
식품	-11.3366
▁appointment	-11.3367
대회	-11.3367
운영	-11.3367
▁Channel	-11.3368
▁landscape	-11.3369
par	-11.3371
▁lighting	-11.3371
▁gained	-11.3373
temp	-11.3374
▁핵	-11.3375
▁개정	-11.3376
기관	-11.3377
▁KT	-11.3382
▁manufacturers	-11.3386
▁challenging	-11.3387
▁있을까	-11.3387
▁있으므로	-11.3388
ura	-11.3388
▁갤럭시	-11.3389
▁방법으로	-11.3389
◎	-11.339
▁Multi	-11.339
▁slowly	-11.3393
ec	-11.3396
꽃	-11.3396
▁싱글	-11.3396
사천	-11.3401
▁millions	-11.3401
▁공지	-11.3403
▁Nick	-11.3404
▁어떠한	-11.3406
▁Value	-11.3409
▁hidden	-11.341
▁Fund	-11.341
▁expanded	-11.3411
▁scientists	-11.3414
Expression	-11.3419
▁binary	-11.342
▁val	-11.3421
타이	-11.3422
▁Sky	-11.3422
▁인기를	-11.3422
▁rural	-11.3423
Co	-11.3423
▁제주도	-11.3426
▁celebrate	-11.3427
성과	-11.343
▁heads	-11.3431
▁kick	-11.3431
ES	-11.3433
ze	-11.3433
law	-11.3434
▁providers	-11.3435
▁joining	-11.3436
▁abap	-11.3441
But	-11.3442
▁일은	-11.3443
cap	-11.3444
▁Junior	-11.3445
어요	-11.3447
€	-11.3451
▁Magazine	-11.3454
sa	-11.3454
▁Category	-11.3455
▁경력	-11.3456
▁streets	-11.3457
▁도전	-11.3459
▁아니면	-11.3461
▁향해	-11.3461
▁bytes	-11.3463
leq	-11.3465
▁layout	-11.3466
▁faces	-11.3467
▁문서	-11.3467
▁retirement	-11.3467
▁ending	-11.3468
▁자전거	-11.3469
▁그들이	-11.347
▁롯데	-11.3471
▁생각하는	-11.3471
▁이용하여	-11.3471
、	-11.3472
≤	-11.3472
▁책임	-11.3475
▁말고	-11.3479
수가	-11.348
▁da	-11.3482
▁hip	-11.3483
▁머리	-11.3483
▁동일한	-11.3484
▁로그인	-11.3484
▁갑자기	-11.3485
▁reader	-11.3485
▁꿈	-11.3487
▁인수	-11.3488
률	-11.3489
▁vacation	-11.3491
▁Modern	-11.3492
▁Iowa	-11.3492
▁vary	-11.3493
▁Challenge	-11.3493
div	-11.3493
Or	-11.3494
▁Regional	-11.3495
▁admitted	-11.3501
▁chat	-11.3502
▁Television	-11.3502
▁덕분에	-11.3505
▁발생한	-11.3505
▁상품을	-11.3506
▁Join	-11.3507
성남	-11.3509
▁외에도	-11.3513
▁relief	-11.3514
양산	-11.3514
▁교체	-11.3515
▁건강한	-11.3515
코로나	-11.3517
▁구역	-11.3518
▁Cubical	-11.3519
▁Linux	-11.3522
▁conflict	-11.3522
▁대행	-11.3523
▁accuracy	-11.3526
효	-11.3526
▁ON	-11.3526
▁towns	-11.3526
▁basically	-11.3527
exp	-11.3528
▁인터뷰	-11.3529
료	-11.353
▁Ken	-11.3531
▁기념	-11.3531
τ	-11.3532
▁detection	-11.3534
진주	-11.3535
word	-11.3537
▁appeal	-11.3537
▁subsequent	-11.3537
▁describes	-11.354
▁conduct	-11.3541
▁Financial	-11.3541
▁proposal	-11.3541
▁발표했다	-11.3542
▁점이	-11.3544
▁anyway	-11.3546
▁Mass	-11.3546
▁approaches	-11.3551
▁documentation	-11.3554
▁sensitive	-11.3556
▁manufacturer	-11.3559
▁신경	-11.3559
▁Atlanta	-11.3561
DB	-11.3564
▁votes	-11.3566
pdf	-11.3566
▁남아	-11.3567
▁Missouri	-11.3569
시오후	-11.357
▁necessarily	-11.3574
김포	-11.3575
▁연락	-11.3575
▁implement	-11.3576
▁dual	-11.3576
▁쓰고	-11.3578
Request	-11.3579
▁dish	-11.3582
포인트	-11.3585
쓰	-11.3586
▁Bio	-11.3586
하시는	-11.3586
▁sin	-11.3588
▁hundred	-11.3588
▁타이	-11.3591
년도	-11.3591
▁AP	-11.3592
pur	-11.3592
▁FREE	-11.3592
▁YouTube	-11.3592
request	-11.3592
▁hasn	-11.3592
▁Example	-11.3593
▁찾기	-11.3593
▁형태로	-11.3595
▁청와대	-11.3595
▁발행	-11.3597
▁그녀의	-11.3599
▁아버지	-11.3602
▁improving	-11.3603
▁expectations	-11.3604
▁자료를	-11.3606
private	-11.3606
▁User	-11.3606
▁행복	-11.3609
ens	-11.361
▁tables	-11.3611
▁Age	-11.3612
▁performances	-11.3614
▁대학교	-11.3615
▁폐	-11.3615
▁적극적으로	-11.3615
▁컬러	-11.3616
판매	-11.3616
part	-11.3616
▁concentration	-11.3617
▁Inter	-11.3617
팔	-11.3617
▁Trust	-11.3619
▁중간	-11.362
전화	-11.3621
광명	-11.3624
Server	-11.3626
▁Register	-11.3627
▁밀	-11.3632
▁somewhere	-11.3633
▁tasks	-11.3634
▁METHODS	-11.3638
▁permission	-11.3638
▁없다고	-11.3639
▁finds	-11.364
�	-11.3641
▁defensive	-11.3641
▁duty	-11.3641
▁우주	-11.3642
▁fundamental	-11.3643
ence	-11.3644
va	-11.3644
▁개념	-11.3645
▁GNU	-11.3647
▁rapid	-11.3648
ln	-11.365
▁슈퍼	-11.3653
▁seriously	-11.3654
▁shower	-11.3657
▁베스트	-11.3664
▁Marine	-11.3667
▁보여	-11.3674
png	-11.3674
▁등은	-11.3678
▁WITH	-11.3678
▁Dallas	-11.3679
▁전력	-11.3682
행정	-11.3682
▁bottle	-11.3683
▁gallery	-11.3685
장이	-11.3687
▁담당	-11.3687
▁skip	-11.3688
comment	-11.369
Num	-11.369
lt	-11.3692
▁constantly	-11.3692
▁확정	-11.3693
▁obviously	-11.3695
▁고객이	-11.3697
▁lowest	-11.3698
▁적은	-11.3699
▁Win	-11.3699
▁부담	-11.3703
▁rose	-11.3703
▁작년	-11.3704
(?)	-11.3704
▁클릭	-11.3704
▁emotional	-11.3709
▁Berlin	-11.3711
▁Pa	-11.3712
ル	-11.3712
▁pleased	-11.3714
▁소설	-11.3716
▁magic	-11.3719
▁framework	-11.3719
▁안전한	-11.3722
▁officially	-11.3722
▁보세요	-11.3725
▁반복	-11.3726
FM	-11.373
▁creates	-11.3736
▁extent	-11.3737
▁겁니다	-11.3737
▁legs	-11.3738
▁힘	-11.3739
▁justice	-11.374
▁journal	-11.374
보령	-11.374
주소	-11.374
▁complicated	-11.3744
lock	-11.3745
▁없음	-11.3746
▁representing	-11.3746
▁sky	-11.3747
▁#-}	-11.3747
▁evaluate	-11.3748
▁references	-11.3748
▁복지	-11.3748
including	-11.3749
▁complications	-11.3749
▁forest	-11.375
▁Elizabeth	-11.375
▁집에	-11.3753
▁출장마사지	-11.3753
▁dependent	-11.3757
▁곳에서	-11.3757
▁노력을	-11.3757
action	-11.3758
▁Maryland	-11.3758
ja	-11.3758
샤	-11.3759
▁weapons	-11.3759
▁politician	-11.3763
▁reputation	-11.3764
▁styles	-11.3766
}}\	-11.3767
격	-11.3768
▁언론	-11.3769
▁담은	-11.3769
{-#	-11.3776
▁농업	-11.3778
▁disc	-11.3779
▁석	-11.3779
누	-11.378
ru	-11.3784
동대구역	-11.3785
▁ecx	-11.3785
▁dating	-11.3787
▁등과	-11.3789
▁conclusion	-11.3789
▁위반	-11.3791
Screen	-11.3792
▁Collection	-11.3792
▁sending	-11.3794
▁threat	-11.3794
▁Analysis	-11.3794
▁crazy	-11.3796
▁Assembly	-11.3797
건설	-11.3798
▁엘	-11.3799
▁correctly	-11.3799
▁'\	-11.3802
▁직업	-11.3803
▁무역	-11.3803
쉬	-11.3804
▁그것이	-11.3809
▁musicians	-11.3812
▁ease	-11.3814
▁pounds	-11.3816
지난	-11.3817
▁Save	-11.3817
콜	-11.3818
▁neither	-11.382
▁효과	-11.382
▁경우도	-11.3822
An	-11.3822
▁확보	-11.3823
▁Inn	-11.3823
▁escape	-11.3823
ology	-11.3826
foot	-11.3827
문제	-11.3828
▁Village	-11.3829
▁tonight	-11.383
▁delete	-11.3831
▁radiation	-11.3831
range	-11.3833
▁둔	-11.3833
ass	-11.3835
▁완전	-11.3836
▁둘	-11.3836
first	-11.3839
▁가서	-11.3839
▁Jason	-11.3841
▁guard	-11.3842
》(	-11.3843
king	-11.3844
▁운영하는	-11.3845
Char	-11.3847
SIZE	-11.3847
▁photography	-11.3847
▁twenty	-11.3851
▁별도의	-11.3851
▁employed	-11.3852
▁신문	-11.3853
System	-11.3853
▁루	-11.3854
하면서도	-11.3857
춘	-11.386
▁노인	-11.3861
▁Season	-11.3861
▁Change	-11.3863
▁Ko	-11.3865
▁제출	-11.3867
▁Author	-11.3867
▁whereas	-11.3868
▁NBA	-11.3869
Icon	-11.387
quality	-11.3872
점을	-11.3873
▁Oklahoma	-11.3873
▁skill	-11.3874
▁사람들을	-11.3876
▁recognize	-11.388
▁unusual	-11.3883
졌다	-11.3883
▁다방	-11.3883
▁Mathematics	-11.3887
▁파리	-11.3888
AI	-11.389
▁subsequently	-11.3891
▁대규모	-11.3893
▁sand	-11.3893
▁케이스	-11.3894
pe	-11.3895
▁tank	-11.3896
▁Stage	-11.3896
▁incredible	-11.3896
침	-11.3899
▁세탁	-11.39
▁게시물	-11.3904
▁망	-11.3904
▁개별	-11.3905
Update	-11.3905
▁Remember	-11.3906
site	-11.3909
▁리스트	-11.391
▁eggs	-11.3912
▁Harry	-11.3913
▁communications	-11.3913
^\	-11.3916
▁Solution	-11.3916
▁indicates	-11.392
▁월드컵	-11.3922
▁centers	-11.3924
상의	-11.3924
▁rax	-11.3925
▁Sign	-11.3925
사와	-11.3926
▁rent	-11.3926
á	-11.3926
▁potentially	-11.3929
▁덧붙였다	-11.3929
조선	-11.3931
했으나	-11.3933
한다면	-11.3933
▁Perhaps	-11.3933
오산	-11.3934
▁Low	-11.3934
▁불리는	-11.3935
▁방법이	-11.3939
▁Moon	-11.3939
.*;	-11.3939
mod	-11.394
▁Physics	-11.3941
▁기독교	-11.3941
▁proven	-11.3944
▁manual	-11.3945
▁searching	-11.3946
▁Patrick	-11.3948
▁교육을	-11.3954
▁exhibition	-11.3957
▁extreme	-11.3959
OR	-11.396
▁끝에	-11.396
▁모르는	-11.3961
▁FIFA	-11.3965
▁논의	-11.3967
header	-11.3969
▁무단전재	-11.3972
▁residential	-11.3972
▁clothes	-11.3977
▁하게	-11.3978
▁resulted	-11.398
▁누	-11.3985
▁Detroit	-11.3986
▁책임을	-11.3987
yard	-11.3987
▁호주	-11.399
offset	-11.3991
­	-11.3993
%),	-11.3994
▁transmission	-11.3997
▁directory	-11.3998
▁bc	-11.3999
▁참조	-11.4
탕	-11.4001
▁간단한	-11.4002
band	-11.4002
▁외에	-11.4003
▁hurt	-11.4008
▁cx	-11.4009
post	-11.401
▁ABC	-11.4014
▁인쇄	-11.4015
▁향상	-11.4015
Math	-11.4018
▁Express	-11.4018
▁savings	-11.402
▁renal	-11.4021
▁DJ	-11.4023
font	-11.4025
▁circumstances	-11.4025
CS	-11.4025
▁storm	-11.403
▁인상	-11.403
▁Pat	-11.4031
▁약간	-11.4031
CH	-11.4033
이면	-11.4034
▁규모의	-11.4035
▁gifts	-11.4035
▁Buy	-11.4037
▁footballers	-11.4038
▁블루	-11.4038
que	-11.4038
▁티켓	-11.4039
NC	-11.4039
▁역대	-11.404
명으로	-11.4042
▁제품은	-11.4042
▁사실상	-11.4044
▁breaking	-11.4045
▁birds	-11.4045
▁believes	-11.4047
▁도박	-11.4048
DC	-11.405
▁shoot	-11.4053
▁connections	-11.4057
▁swimming	-11.4061
룸	-11.4061
▁보유	-11.4064
▁사용하고	-11.4068
▁representative	-11.407
▁사람들에게	-11.4071
▁reducing	-11.4072
▁Was	-11.4072
▁tone	-11.4073
랜드	-11.4073
▁sufficient	-11.4073
슬롯머신	-11.4073
▁oven	-11.4078
▁cd	-11.4079
▁친	-11.4079
▁본다	-11.408
▁continuing	-11.4083
▁graduated	-11.4084
쳐	-11.4085
▁hopes	-11.4088
들로	-11.4088
uri	-11.4089
▁pot	-11.4089
▁페이스북	-11.409
▁꽤	-11.409
사를	-11.409
▁Side	-11.4092
▁conversion	-11.4093
▁leather	-11.4094
~~	-11.4095
ara	-11.4095
▁지구	-11.4096
▁profit	-11.4097
▁오늘은	-11.4101
ev	-11.4103
▁Title	-11.4103
ス	-11.4104
▁Learning	-11.4104
▁탈	-11.4105
▁Empire	-11.4108
▁Wire	-11.4109
▁이내	-11.4113
▁지식	-11.4113
ymm	-11.4114
▁Holy	-11.4126
▁logo	-11.4127
▁quote	-11.4129
▁단순히	-11.4129
▁prominent	-11.413
▁arrive	-11.4131
▁군사	-11.4133
▁liked	-11.4134
▁Ka	-11.4134
▁knee	-11.4137
회장	-11.4138
▁discount	-11.4138
)}	-11.414
▁뜨거운	-11.4141
동해	-11.4142
▁concrete	-11.4142
원주	-11.4142
▁maintained	-11.4143
)?	-11.4146
í	-11.4147
▁arguments	-11.4147
팩	-11.4149
▁founder	-11.415
▁priority	-11.4151
▁transformation	-11.4153
▁스타일	-11.4156
기준	-11.4156
▁humans	-11.4157
available	-11.4159
▁IV	-11.4159
▁제외	-11.416
▁adventure	-11.4162
angle	-11.4164
▁boost	-11.4165
ai	-11.4166
▁Na	-11.4167
▁엄마	-11.4169
▁했지만	-11.4169
▁있음을	-11.417
▁만난	-11.4173
▁gear	-11.4175
▁mouse	-11.4175
▁Films	-11.4175
▁목사	-11.4176
Change	-11.4177
▁Table	-11.4179
▁rarely	-11.4179
▁KB	-11.418
▁bond	-11.4181
▁Bi	-11.4181
▁usage	-11.4186
▁increasingly	-11.4186
▁Down	-11.4187
인의	-11.4192
▁modify	-11.4193
Loader	-11.4193
▁모아	-11.4194
▁조명	-11.4194
▁entrance	-11.4197
▁Allen	-11.4197
▁만한	-11.4198
달러	-11.4198
▁행복한	-11.4198
je	-11.4201
▁offensive	-11.4202
▁injured	-11.4202
▁grid	-11.4203
▁보이지	-11.4204
▁발표한	-11.4204
▁청주	-11.4206
mon	-11.4207
▁equ	-11.4212
▁해당하는	-11.4214
▁Oxford	-11.4218
▁pink	-11.4219
▁이사	-11.4222
파주	-11.4226
▁everyday	-11.4228
▁박근혜	-11.4233
▁Kentucky	-11.4233
신청	-11.4233
▁Ho	-11.4233
▁stuck	-11.4238
▁나머지	-11.4239
▁explains	-11.4242
이었습니다	-11.4243
▁화면	-11.4244
▁음반	-11.4245
▁listening	-11.4246
▁underlying	-11.4249
▁hate	-11.425
▁알려졌다	-11.4252
▁lift	-11.4252
▁ranked	-11.4253
▁Lo	-11.4254
▁cute	-11.4254
▁지역에	-11.4255
▁junior	-11.4255
▁Alexander	-11.4256
▁lens	-11.4257
▁체크아웃	-11.4262
▁Ke	-11.4267
▁Update	-11.4267
시티	-11.4268
▁잘못	-11.4268
‧	-11.427
국내	-11.427
▁texture	-11.4271
▁생성	-11.4271
▁adopted	-11.4272
ane	-11.4273
전문	-11.4273
▁울	-11.4275
▁Vegas	-11.4275
▁기록했다	-11.4275
상담	-11.4276
▁electron	-11.4276
MAX	-11.4278
▁compete	-11.4281
▁reply	-11.4281
▁제어	-11.4281
▁glad	-11.4281
▁scope	-11.4286
룡	-11.4288
▁Governor	-11.4289
순천	-11.4291
▁서울특별시	-11.4295
▁발생할	-11.4295
▁CJ	-11.4295
▁Agency	-11.4295
▁stability	-11.4295
▁Follow	-11.4297
현재	-11.4297
▁재정	-11.4297
▁Visit	-11.4299
▁테	-11.43
▁내용의	-11.43
▁라인	-11.4301
▁Final	-11.4303
스트	-11.4304
▁container	-11.4305
han	-11.4305
▁감염	-11.4305
CC	-11.4306
▁남은	-11.4308
▁managing	-11.4312
stone	-11.4313
▁dust	-11.4316
▁transferred	-11.4318
▁작성일	-11.4318
▁pos	-11.4318
시킨	-11.432
▁fiction	-11.432
▁edges	-11.432
▁옛	-11.4321
▁실패	-11.4321
▁박물관	-11.4322
▁미술	-11.4323
sec	-11.4327
제주	-11.4327
▁소스	-11.4327
▁입학	-11.4329
trig	-11.4331
영상	-11.4331
정부	-11.4331
▁열리는	-11.4332
▁developers	-11.4332
▁민족	-11.4332
▁Iraq	-11.4332
▁Prize	-11.4336
▁narrow	-11.4338
▁tail	-11.4339
공원	-11.4339
모바일	-11.4339
dimensional	-11.434
▁clothing	-11.4341
▁장관	-11.4342
▁army	-11.4345
▁ft	-11.4345
▁보이고	-11.4346
되었으며	-11.4346
▁flavor	-11.4346
▁def	-11.435
▁lung	-11.4351
▁있	-11.4351
▁handling	-11.4352
▁voters	-11.4353
밀양	-11.4355
▁공용	-11.4355
▁Soviet	-11.4357
▁situated	-11.4358
▁Dark	-11.4358
해도	-11.436
▁축제	-11.436
▁Schools	-11.4363
ons	-11.4364
▁nerve	-11.4366
▁Originally	-11.4369
▁gay	-11.4369
관계	-11.4369
자로	-11.437
▁떠나	-11.4373
our	-11.4373
▁파일을	-11.4375
▁Del	-11.4375
▁말씀	-11.4375
▁이것이	-11.4376
광양	-11.4376
▁지원하는	-11.4379
▁Tri	-11.4381
▁간의	-11.4382
▁marks	-11.4383
혁	-11.4384
▁ch	-11.4385
▁bars	-11.4388
▁stretch	-11.4389
▁Should	-11.4391
▁수원	-11.4395
▁시작으로	-11.4395
▁Mrs	-11.4395
인데요	-11.4396
▁elections	-11.4396
Generic	-11.4399
시험	-11.44
▁Ha	-11.4401
▁몸	-11.4401
하고자	-11.4401
▁tie	-11.4403
▁piano	-11.4404
active	-11.4404
컵	-11.4404
▁배경	-11.4405
ical	-11.4407
▁부분을	-11.4408
▁electrical	-11.4412
default	-11.4413
▁introduce	-11.4413
해요	-11.4416
Check	-11.4416
▁entries	-11.4417
▁powder	-11.4417
▁Championships	-11.4422
▁crucial	-11.4422
ラ	-11.4424
▁murder	-11.4424
▁탄생	-11.4425
▁노하우	-11.4425
▁bin	-11.4427
▁Girl	-11.4429
▁인권	-11.4429
▁북한의	-11.443
▁맥	-11.443
세트	-11.4433
▁Rob	-11.4435
▁Smart	-11.4437
▁에스코트	-11.4438
Source	-11.444
▁플라스틱	-11.4441
▁Te	-11.4443
▁egg	-11.4443
▁Boy	-11.4443
▁${	-11.4444
▁survival	-11.4444
▁INPUT	-11.4446
▁훌륭한	-11.4447
Page	-11.4447
▁Disney	-11.4447
안내	-11.4449
▁appearances	-11.445
▁$("#	-11.445
▁Golf	-11.445
▁Stadium	-11.4451
tt	-11.4453
▁soul	-11.4455
은행	-11.4455
▁넓은	-11.4455
▁목표로	-11.4455
서산	-11.4458
▁walked	-11.4458
▁Current	-11.4459
Stream	-11.4462
♠	-11.4464
▁자세히	-11.4464
▁환전	-11.4465
▁모여	-11.4466
▁MA	-11.4466
▁CPU	-11.4468
▁risks	-11.447
▁애플	-11.4471
▁PR	-11.4471
▁regulations	-11.4473
▁근무	-11.4477
▁주의	-11.4478
▁분야에서	-11.4479
▁aside	-11.4479
▁화장품	-11.4479
▁블록체인	-11.4481
▁reverse	-11.4481
▁몸을	-11.4482
▁정도의	-11.4484
▁무엇을	-11.4489
▁바이	-11.4491
▁healthcare	-11.4492
▁champion	-11.4492
▁SD	-11.4493
▁순위	-11.4498
eng	-11.4499
▁발매	-11.4502
▁posting	-11.4503
▁Death	-11.4504
▁Form	-11.4507
▁adjacent	-11.451
충주	-11.4512
▁Zbl	-11.4512
▁consecutive	-11.4513
▁Due	-11.4515
▁Po	-11.4515
▁친환경	-11.4516
ram	-11.4517
▁joy	-11.4519
▁능력을	-11.452
ita	-11.452
▁implemented	-11.4521
▁등에서	-11.4524
icon	-11.4524
▁Romney	-11.4526
tz	-11.4527
▁intensity	-11.4527
김천	-11.4529
▁SC	-11.453
ning	-11.4532
◦	-11.4534
▁계획을	-11.4536
▁entering	-11.4537
mg	-11.4537
▁철	-11.4541
DS	-11.4541
▁correlation	-11.4542
▁돼	-11.4542
ST	-11.4544
▁아울러	-11.4544
イ	-11.4545
▁guidelines	-11.4547
하니	-11.4548
▁해석	-11.4549
▁Print	-11.455
이라도	-11.4551
ible	-11.4552
▁통화	-11.4553
▁가격이	-11.4556
"),	-11.4556
제를	-11.4557
▁일반적인	-11.4565
θ	-11.4566
▁disorder	-11.4567
▁Anderson	-11.457
▁scenes	-11.4571
▁bonus	-11.4573
▁mx	-11.4575
년의	-11.4575
only	-11.4576
되	-11.4578
ny	-11.4578
▁Policy	-11.4579
블	-11.458
▁세부	-11.4581
▁Parliament	-11.4581
▁vast	-11.4583
▁Return	-11.4583
▁음	-11.4584
▁중요하다	-11.4584
▁slot	-11.4585
▁Self	-11.4588
▁personally	-11.4591
▁회의	-11.4592
▁driven	-11.4593
▁걱정	-11.4593
TEXT	-11.4595
▁있으나	-11.4595
▁자동으로	-11.4597
▁ALL	-11.4601
eb	-11.4601
▁접근	-11.4604
▁Blog	-11.4605
js	-11.4605
에너지	-11.4606
나주	-11.4606
▁recipes	-11.4606
▁Ocean	-11.4607
폰	-11.4608
시오전	-11.4608
▁privacy	-11.461
▁느낌이	-11.4611
▁관련해	-11.4614
▁rice	-11.4615
▁falling	-11.4616
▁혜택을	-11.4618
};	-11.462
삼척	-11.4622
▁Far	-11.4622
욱	-11.4623
▁Forum	-11.4623
▁attribute	-11.4626
▁limitations	-11.4626
▁careful	-11.4627
▁innovation	-11.4628
▁convenient	-11.4628
▁principles	-11.4629
▁Jordan	-11.4629
▁자체가	-11.463
OS	-11.4631
▁Chi	-11.4631
▁par	-11.4635
ax	-11.4636
▁resident	-11.4636
▁강원도	-11.4639
년을	-11.464
▁무엇보다	-11.4642
력을	-11.4642
▁라디오	-11.4643
▁assert	-11.4646
▁중소기업	-11.4646
▁고대	-11.4649
▁eligible	-11.4649
기로	-11.4649
▁shouldn	-11.4655
▁Entertainment	-11.4655
▁Austin	-11.4655
▁implements	-11.4655
▁민주당	-11.4657
▁#$	-11.4657
▁입장	-11.4658
킹	-11.4659
롱	-11.466
▁Howard	-11.466
▁시장에	-11.4662
▁깊이	-11.4662
▁Such	-11.4662
▁laser	-11.4662
▁공무원	-11.4663
▁explanation	-11.4663
▁rapidly	-11.4665
▁packages	-11.4665
▁illegal	-11.4666
콘	-11.4666
▁pairs	-11.4668
▁종이	-11.4669
▁hosting	-11.4669
▁promise	-11.467
▁template	-11.467
▁ceremony	-11.4674
시키고	-11.4676
▁로봇	-11.4677
여수	-11.4679
▁제품의	-11.4679
▁Come	-11.468
▁엔진	-11.468
뉴	-11.4683
▁업계	-11.4684
▁작품을	-11.4685
▁Ron	-11.4688
▁colleagues	-11.4692
계획	-11.4693
▁admission	-11.4693
▁재생	-11.4696
tech	-11.4697
▁특수	-11.4698
▁만화	-11.4699
▁초대	-11.4699
▁seed	-11.4702
씨가	-11.4703
▁Ross	-11.4703
▁제공한다	-11.4705
▁Cambridge	-11.4707
▁lawyer	-11.4708
▁문을	-11.4708
▁이미지를	-11.4708
▁RE	-11.471
▁luxury	-11.471
▁Submitted	-11.4711
딩	-11.4718
▁closing	-11.472
▁고정	-11.4721
▁Kelly	-11.4725
▁서버	-11.4726
▁주민	-11.4726
장수	-11.4727
▁estimates	-11.4728
▁Brazil	-11.4728
▁tumors	-11.4729
▁lifestyle	-11.473
카페	-11.473
▁universe	-11.4732
▁입장을	-11.4732
▁체결	-11.4733
oma	-11.4733
quad	-11.4733
▁whenever	-11.4738
club	-11.4739
▁Rev	-11.474
block	-11.4741
Client	-11.4741
pc	-11.4743
▁없	-11.4743
▁equipped	-11.4744
金	-11.4744
▁roads	-11.4744
▁carrying	-11.4746
▁Jay	-11.4746
▁아니고	-11.4746
ク	-11.4747
▁Bad	-11.4748
고양	-11.4748
oz	-11.4749
World	-11.4752
▁emission	-11.4754
⁄	-11.4755
▁Premier	-11.4755
▁한글	-11.4758
cy	-11.4759
▁Moore	-11.4759
▁jr	-11.4759
£©	-11.4759
▁Polish	-11.476
▁피해를	-11.476
▁메인	-11.476
const	-11.476
▁아무	-11.4761
이천	-11.4761
▁dimension	-11.4761
edu	-11.4761
リ	-11.4763
▁Travel	-11.4765
▁수준의	-11.4766
▁heading	-11.4767
▁법적	-11.4768
▁addChild	-11.4769
▁Command	-11.4769
▁이중	-11.477
자동차	-11.4771
니까	-11.4774
▁Marketing	-11.4777
▁bunch	-11.4778
▁beam	-11.4779
ア	-11.478
▁studying	-11.4782
▁먹을	-11.4782
▁prize	-11.4784
▁눈을	-11.4784
▁sixth	-11.4785
▁trail	-11.4788
ae	-11.4788
▁boxes	-11.4789
혜	-11.4789
▁province	-11.4789
mark	-11.4789
▁NOTE	-11.479
▁실천	-11.479
▁덜	-11.479
의성	-11.4791
▁consumption	-11.4792
▁Ph	-11.4792
보성	-11.4793
中	-11.4795
▁주방	-11.4795
▁st	-11.4796
▁strange	-11.4797
❤	-11.4797
관광	-11.4799
음악	-11.48
▁널리	-11.4801
▁Location	-11.4805
복지	-11.4805
▁약속	-11.4805
▁부족	-11.4807
▁써	-11.4808
세요	-11.4816
ut	-11.4817
▁hall	-11.4818
▁Cloud	-11.4818
Me	-11.482
▁배치	-11.4821
더니	-11.4821
▁데뷔	-11.4822
▁**	-11.4823
▁Private	-11.4825
inc	-11.4825
▁메뉴	-11.4826
▁optional	-11.4826
▁HTML	-11.4826
▁본문	-11.4827
▁수익	-11.4829
▁payments	-11.483
▁Military	-11.4834
▁내내	-11.4835
▁implied	-11.4835
▁computed	-11.4836
ver	-11.4836
▁Meanwhile	-11.4837
▁태그	-11.4838
reg	-11.4838
례	-11.4839
▁답	-11.4839
▁Grant	-11.4839
이는	-11.484
▁tied	-11.4842
과는	-11.4843
▁공원	-11.4846
▁Off	-11.4847
▁독특한	-11.4848
▁voted	-11.4849
▁REF	-11.4849
▁politicians	-11.485
▁chairman	-11.4854
▁Anti	-11.4855
▁힘이	-11.4855
▁하락	-11.4855
AL	-11.4857
▁패	-11.4857
▁nodes	-11.4858
▁웹사이트	-11.4859
▁시간에	-11.4861
▁버	-11.4861
▁진주	-11.4862
close	-11.4863
포천	-11.4865
▁예산	-11.4866
거래	-11.4866
▁forever	-11.4869
▁가슴	-11.4871
▁availability	-11.4871
▁와인	-11.4871
▁locally	-11.4871
SS	-11.4872
▁suffering	-11.4872
리뷰	-11.4874
▁optical	-11.4874
▁소셜	-11.4875
▁Castle	-11.4875
견	-11.4876
▁guidance	-11.4877
▁reform	-11.488
Click	-11.4882
▁FM	-11.4882
▁mild	-11.4882
▁장애	-11.4884
▁했는데	-11.4884
☺	-11.4884
▁translation	-11.4885
▁spots	-11.4887
⇛	-11.4888
▁전투	-11.4888
▁이들이	-11.4888
▁headed	-11.4889
▁Atlantic	-11.489
▁후드	-11.4891
ot	-11.4891
▁기도	-11.4892
하남	-11.4893
dot	-11.4893
Content	-11.4895
▁bags	-11.4896
▁bird	-11.4897
▁strategic	-11.4899
Task	-11.4901
child	-11.4902
▁MC	-11.4902
▁입고	-11.4903
분야	-11.4903
▁지하	-11.4903
▁수학	-11.4905
▁부탁드립니다	-11.4906
po	-11.4907
▁ill	-11.4912
▁Classic	-11.4912
▁combine	-11.4912
bracketl	-11.4913
bracketr	-11.4914
▁suggestions	-11.4914
▁premium	-11.4915
전체	-11.4916
♂	-11.4916
▁illness	-11.4917
▁명이	-11.492
▁정신	-11.4921
과정	-11.4921
▁Da	-11.4922
▁eastern	-11.4923
▁victims	-11.4924
▁conventional	-11.4927
▁Website	-11.4927
▁principle	-11.493
도로	-11.493
mar	-11.4931
▁Jo	-11.4932
♀	-11.4932
▁인근	-11.4934
거제	-11.4934
일간	-11.4939
▁열고	-11.494
▁구성된	-11.4941
▁Article	-11.4942
epsilon	-11.4943
정치	-11.4943
assert	-11.4943
▁마스크	-11.4945
▁⊢	-11.4948
태국	-11.4949
▁마찬가지로	-11.495
웅	-11.4951
▁집에서	-11.4951
▁meets	-11.4952
▁checking	-11.4952
▁시장의	-11.4954
▁minister	-11.4955
▁checked	-11.4957
pre	-11.4959
▁highway	-11.496
▁districts	-11.4962
minute	-11.4962
▁``	-11.4963
END	-11.4964
▁settlement	-11.4965
WiFi	-11.4966
▁flying	-11.4966
왔다	-11.4967
▁mis	-11.4968
시흥	-11.4968
▁generic	-11.4968
▁shoulder	-11.497
▁공간을	-11.497
▁경남	-11.4971
▁ph	-11.4971
track	-11.4973
▁applying	-11.4974
▁Shop	-11.4975
▁IMPORTING	-11.4979
▁연간	-11.4981
▁Nations	-11.4982
▁signature	-11.4983
▁유튜브	-11.4984
예술	-11.4985
☏	-11.4986
▁certified	-11.4987
홀	-11.4987
▁야마토	-11.499
▁Ave	-11.4993
▁Region	-11.4993
참	-11.4994
▁형성	-11.4994
▁pregnancy	-11.4994
시켰다	-11.4995
▁essay	-11.4997
ano	-11.4999
▁completion	-11.4999
▁앤	-11.4999
▁그렇다면	-11.4999
▁sentence	-11.5
▁shops	-11.5001
등급	-11.5002
▁stages	-11.5003
▁살아	-11.5003
▁Cook	-11.5006
$-	-11.5007
과천	-11.5007
▁io	-11.5007
▁pepper	-11.5009
▁reaching	-11.5009
MovieClip	-11.5011
하려	-11.5012
ph	-11.5013
▁들었다	-11.5013
service	-11.5016
▁engaged	-11.5017
태백	-11.5018
▁Comments	-11.5019
▁필요합니다	-11.5019
▁favor	-11.5021
▁Exchange	-11.5022
▁honest	-11.5023
▁◆	-11.5026
▁contributed	-11.5028
▁doctors	-11.5031
eta	-11.5032
▁font	-11.5034
▁뮤지컬	-11.5039
rho	-11.5041
▁defeated	-11.5043
▁pilot	-11.5043
▁있는데요	-11.5044
▁운행	-11.5045
▁frequent	-11.5045
▁USD	-11.5045
▁dimensions	-11.5046
▁ii	-11.5047
▁분리	-11.5048
▁amounts	-11.5049
▁assumed	-11.5049
Free	-11.5051
▁이들의	-11.5051
▁환경을	-11.5051
군포	-11.5055
▁퍼	-11.5055
▁exposed	-11.5057
▁ca	-11.5058
▁drinking	-11.5059
☀	-11.5059
tin	-11.5059
▁Safety	-11.5061
▁Machine	-11.5061
▁finance	-11.5065
▁WS	-11.5066
▁lucky	-11.5069
▁genetic	-11.507
▁demonstrate	-11.507
▁orange	-11.5071
▁pointed	-11.5071
▁진정한	-11.5073
▁등장	-11.5075
▁soccer	-11.5077
▁pace	-11.5079
▁volunteers	-11.5079
▁characteristic	-11.508
▁규정	-11.5081
▁경우에	-11.5082
▁iOS	-11.5082
pop	-11.5083
▁Ice	-11.5084
▁matching	-11.5084
육	-11.5086
▁sharp	-11.5088
▁temperatures	-11.5089
▁부여	-11.509
▁statistical	-11.509
▁codes	-11.5095
▁mo	-11.5095
▁국민의	-11.5099
▁institution	-11.51
▁한국어	-11.5102
▁Clark	-11.5102
인치	-11.5104
▁doi	-11.5108
▁하겠습니다	-11.5108
▁Case	-11.511
인증	-11.5112
▁밴드	-11.5114
▁반품	-11.5115
Target	-11.5116
▁뇌	-11.5117
▁summary	-11.5119
Component	-11.512
▁헤	-11.5122
ria	-11.5122
▁Anthony	-11.5122
▁coordinates	-11.5124
고객	-11.5125
▁FROM	-11.5126
♩	-11.5127
▁essentially	-11.5127
▁computers	-11.5128
함안	-11.5128
endif	-11.5129
▨	-11.513
자와	-11.5131
sky	-11.5132
gamma	-11.5132
해주는	-11.5134
KEY	-11.5135
▁uniform	-11.5135
▁기회가	-11.5136
나라	-11.5136
▁통과	-11.5138
▁Child	-11.5141
안양	-11.5143
Func	-11.5144
du	-11.5145
а	-11.5147
▁rental	-11.5151
MC	-11.5153
山	-11.5155
▁집단	-11.5156
​	-11.5156
▁전부	-11.5157
▁Five	-11.5158
winning	-11.5158
☎	-11.5158
▁Mexican	-11.5159
▁합의	-11.5159
도를	-11.516
▁actress	-11.5161
▁choosing	-11.5163
▁bear	-11.5167
▁Ad	-11.5168
▁정치적	-11.5171
▁filling	-11.5171
▁Province	-11.5173
틀	-11.5173
▁판단	-11.5174
▁성적	-11.5175
칸	-11.5175
▁Round	-11.5176
find	-11.5176
BC	-11.5178
과학	-11.518
▁언제나	-11.5181
▁물을	-11.5182
☻	-11.5182
ius	-11.5183
La	-11.5187
▁가구	-11.519
▁Would	-11.5192
▁sick	-11.5192
▁ST	-11.5195
계룡	-11.5198
ho	-11.5198
▁아무리	-11.5199
▁엄청난	-11.52
▁페	-11.5201
▁상대	-11.5201
non	-11.5203
▁나이키	-11.5203
▁잔	-11.5204
▁Turkey	-11.5204
♐	-11.5204
▁greatly	-11.5204
▁꿈을	-11.5205
▁religion	-11.5206
▁dental	-11.5206
dd	-11.5207
▁trends	-11.5207
▁Cal	-11.5207
▁슈	-11.5208
▁loves	-11.5209
▁고등학교	-11.521
▁Sarah	-11.521
▁Consider	-11.521
▁sorry	-11.5213
구조	-11.5214
▁스페인	-11.5214
▁포함되어	-11.5214
▁childhood	-11.5214
▁저도	-11.5215
are	-11.5215
▁Again	-11.5215
▁Capital	-11.5217
▁현재의	-11.5218
dir	-11.5218
▁flexible	-11.522
▁hire	-11.5222
▁뜻을	-11.5222
▁promotion	-11.5223
▁suspect	-11.5225
▁Oil	-11.5227
▁utility	-11.5228
▁gender	-11.5229
▁칼	-11.5229
▁보드	-11.5231
▁방지	-11.5232
▁반도체	-11.5232
Un	-11.5233
에만	-11.5236
▁나아가	-11.5237
▁착용	-11.5237
으로는	-11.5239
MP	-11.524
▁넣어	-11.5241
cal	-11.5241
▁lessons	-11.5241
▁writes	-11.5242
⇚	-11.5243
▁entity	-11.5243
시대	-11.5243
구요	-11.5243
가능	-11.5244
▁이처럼	-11.5247
▁plain	-11.5247
흥	-11.5249
▁아마	-11.5249
▁fitness	-11.525
▁주장	-11.5251
▁Islands	-11.5252
집배신	-11.5253
▁stronger	-11.5254
▁talked	-11.5254
ber	-11.5255
▁conservative	-11.5256
▁어플	-11.5257
▁위로	-11.5257
▁음식을	-11.526
리아	-11.526
▁anterior	-11.5261
▁끝	-11.5262
▁facts	-11.5262
▁맛	-11.5265
▁temporary	-11.5265
▁attractive	-11.5266
이에요	-11.5266
스터	-11.5267
▁intelligence	-11.5268
평창	-11.5268
서는	-11.5268
▁금속	-11.5268
▁성과를	-11.527
▁alive	-11.5272
Util	-11.5272
▁converted	-11.5272
대의	-11.5272
▁Want	-11.5274
▁Questions	-11.5275
▁식	-11.5275
▁저작권	-11.5276
▁mathematics	-11.5277
User	-11.5277
허	-11.5277
▁해제	-11.5277
▁Phone	-11.5278
▁Limited	-11.5279
▁종교	-11.5281
人	-11.5282
▁Without	-11.5284
▁Alabama	-11.5284
▁UI	-11.5284
▁gauge	-11.5285
남양주	-11.5286
media	-11.5286
▧	-11.5287
レ	-11.5288
▁lay	-11.5289
▁AD	-11.529
▁잘하는	-11.529
▁Communications	-11.5291
▁Common	-11.5291
▁derivative	-11.5291
De	-11.5292
▁지역에서	-11.5292
제천	-11.5293
▁logic	-11.5294
동두천	-11.5295
▁falls	-11.5295
▁Study	-11.5295
▁Works	-11.5296
▁문학	-11.5296
에게는	-11.5296
▁Java	-11.5297
▁composition	-11.5298
jerakine	-11.53
▁governor	-11.53
▁동반	-11.5304
인이	-11.5304
▁confirm	-11.5305
▁tall	-11.5305
▁Need	-11.5308
☪	-11.531
▁consideration	-11.5312
농	-11.5312
▁읽고	-11.5313
▁기후	-11.5313
power	-11.5315
cut	-11.5316
▁프로모션	-11.5316
control	-11.5317
▁Volume	-11.5318
▁produces	-11.5318
Bitmap	-11.5318
▁everywhere	-11.532
▁수도권	-11.532
▁soldiers	-11.532
▁Rome	-11.5321
▁improvements	-11.5321
▁청소	-11.5322
▁릴	-11.5323
➻	-11.5325
▁ships	-11.5325
▁기능이	-11.5327
▁interactive	-11.5328
location	-11.5328
▁비타민	-11.533
▁폐지	-11.5331
▁소득	-11.5333
자리	-11.5333
▁offense	-11.5334
▁심각한	-11.5334
▁역사를	-11.5335
▁Looking	-11.5337
▁upgrade	-11.5337
중앙	-11.5339
▁열어	-11.5339
▁적절한	-11.534
▁ear	-11.5341
▁Phil	-11.5342
▁laid	-11.5342
▷	-11.5343
▁engineer	-11.5344
데요	-11.5344
▁favourite	-11.5347
▁CLASS	-11.5347
▁Select	-11.5347
▁주장했다	-11.5348
위원장	-11.5349
▁욕실	-11.535
▁차단	-11.5352
▁맞게	-11.5354
Man	-11.5357
Show	-11.5357
오전	-11.5358
psi	-11.5358
▁portfolio	-11.5358
원을	-11.5358
▁Rights	-11.5358
▁contents	-11.5359
사용	-11.5362
rightarrow	-11.5362
하이	-11.5363
▁wireless	-11.5365
▁le	-11.5366
▁console	-11.5367
릭	-11.5368
▁그럼	-11.5368
φ	-11.5368
▁Republicans	-11.5369
▁WHEN	-11.5369
국민	-11.537
▁샵	-11.5371
상주	-11.5371
ト	-11.5372
▁코리아	-11.5374
▁LD	-11.5376
γ	-11.5377
Obj	-11.5377
.....	-11.5378
▁보여주는	-11.5379
▁종종	-11.5379
광고	-11.538
▁Annual	-11.538
프로	-11.5381
fa	-11.5381
▁strike	-11.5383
▁YOU	-11.5384
▁그에	-11.5384
다면	-11.5388
▁사과	-11.5392
▁면접	-11.5392
▁Pop	-11.5393
▁diagram	-11.5398
▁연출	-11.5398
▁loans	-11.5398
플	-11.5398
▁Double	-11.5399
making	-11.54
▁범죄	-11.5403
selected	-11.5404
▁depend	-11.5404
▁수준	-11.5404
▁고객의	-11.5405
▁인공지능	-11.5406
가구	-11.541
▁preferred	-11.5411
▁requests	-11.5411
▁encouraged	-11.5411
▁Har	-11.5413
▁optimal	-11.5413
▁smile	-11.5414
▁stayed	-11.542
Field	-11.5422
▁패키지	-11.5423
dr	-11.5424
▁코스	-11.5424
빛	-11.5424
▁outcomes	-11.5425
App	-11.5426
▁platforms	-11.5426
▁허용	-11.5426
▁Previous	-11.5428
ky	-11.5432
dofus	-11.5436
▁아프리카	-11.5436
▁Duke	-11.5437
정도	-11.5438
▁별로	-11.5439
▁yield	-11.5443
받은	-11.5444
▁비밀	-11.5445
img	-11.5446
ig	-11.5446
보호	-11.5447
card	-11.5447
・	-11.5448
▁shock	-11.5451
▁anniversary	-11.5452
▁장치	-11.5453
▁미치는	-11.5456
장성	-11.5457
▁regardless	-11.5457
▁전공	-11.5457
▁Vice	-11.5459
▁Tree	-11.5462
▁heavily	-11.5465
▁till	-11.5466
server	-11.5466
검	-11.5467
▁highlight	-11.5467
▁Published	-11.5468
▁cp	-11.5468
▁warning	-11.5469
сом	-11.5471
저작권자	-11.5471
▁fits	-11.5473
▁촌	-11.5473
iz	-11.5473
취	-11.5474
▁중요	-11.5474
▁변호사	-11.5475
▁결코	-11.5476
▁corn	-11.5478
▁objective	-11.5479
▁seq	-11.548
▁enhanced	-11.5481
젠	-11.5481
↑	-11.5487
▁faced	-11.5487
▁도구	-11.5487
▁가이드	-11.5487
▁Based	-11.5488
▁사랑하는	-11.5489
▁cluster	-11.549
▁달성	-11.549
▁시장에서	-11.5491
▁호텔을	-11.5491
▁굉장히	-11.5492
▁afford	-11.5494
▁aged	-11.5494
▁administrative	-11.5496
▁가까이	-11.5498
▁측은	-11.55
▁terminal	-11.55
▁목적	-11.55
▁powers	-11.5503
▁보상	-11.5504
gate	-11.5504
▁killing	-11.5504
random	-11.5505
▁전원	-11.5506
▁유일한	-11.5506
▁races	-11.5508
▁부문	-11.5509
▁rising	-11.5509
▁induced	-11.5509
월까지	-11.551
▁keys	-11.551
ula	-11.551
▁household	-11.5511
▁이름으로	-11.5511
Character	-11.5512
▁recommendations	-11.5513
▁opposed	-11.5513
Layer	-11.5513
▁engage	-11.5518
▁홀	-11.5518
▁유형	-11.5518
▁commands	-11.5518
▁Baltimore	-11.5521
▁ultimate	-11.5522
▁미래를	-11.5522
영광	-11.5522
▁tri	-11.5523
▁waves	-11.5525
▁살아있는	-11.5526
Sub	-11.5528
PS	-11.5528
▁옥	-11.553
▁ebx	-11.5532
√	-11.5534
양주	-11.5537
▁꽁머니	-11.5537
▁viewed	-11.5538
▁der	-11.5539
フ	-11.5543
▁아직도	-11.5544
▁있었고	-11.5544
▁Dean	-11.5545
AC	-11.5545
▁workshop	-11.5546
▁boot	-11.5546
▁opposition	-11.5546
경산	-11.5547
▁다르게	-11.5549
▁Convention	-11.5549
toString	-11.5549
▁그때	-11.555
징	-11.555
▁상대로	-11.5551
의왕	-11.5553
▁brothers	-11.5555
▁shut	-11.5555
▁Function	-11.5556
▁색상	-11.5556
▁체크	-11.5556
▁ok	-11.5556
▁Us	-11.5558
잔	-11.5562
ds	-11.5564
geom	-11.5565
TextField	-11.5565
▁layers	-11.5566
▁pow	-11.5567
▁어제	-11.5568
▁Historic	-11.5569
rich	-11.5569
▁calendar	-11.5569
▁Officer	-11.5569
ette	-11.5574
common	-11.5574
엽	-11.558
▁Su	-11.5583
▁directions	-11.5583
war	-11.5584
▁학생들이	-11.5584
▁deck	-11.5584
▁많아	-11.5585
▁단계	-11.5586
who	-11.5587
▁treatments	-11.5589
진안	-11.559
▁EP	-11.559
▁incidence	-11.559
シ	-11.5592
▁raising	-11.5592
▁클래스	-11.5595
일반	-11.5596
▁Send	-11.5596
▁decreased	-11.5597
▁Happy	-11.5597
▁lock	-11.5598
▁captured	-11.5599
mat	-11.56
▁음성	-11.5601
양평	-11.5604
▁inch	-11.5604
▁entitled	-11.5606
▁나갈	-11.5606
▁Mill	-11.5607
}+	-11.5607
▁lifetime	-11.5608
▁ENDCLASS	-11.5611
▁ISO	-11.5615
module	-11.5615
▁substantial	-11.5617
▁규모	-11.5617
▁tape	-11.562
ez	-11.5621
▁coaching	-11.5621
St	-11.5622
▁Enjoy	-11.5623
▁Manchester	-11.5625
▁victim	-11.5627
▁versus	-11.5628
▁poly	-11.5629
▁술	-11.5632
▁sustainable	-11.5633
▁OFF	-11.5635
▁isolated	-11.5635
▁exp	-11.5636
부안	-11.5636
▁arrival	-11.5637
▁수립	-11.5638
▁decay	-11.5639
비용	-11.564
▁Made	-11.5641
▁mechanical	-11.5641
▁attending	-11.5642
▁Single	-11.5644
✔	-11.5644
circ	-11.5645
Style	-11.5651
▁traveling	-11.5651
▁reveal	-11.5651
대가	-11.5651
닝	-11.5652
▁roughly	-11.5652
▁극	-11.5653
▁이유가	-11.5655
▁destroyed	-11.5658
최근	-11.5658
parameter	-11.566
▁spiritual	-11.566
▁polynomial	-11.5661
▁어려움을	-11.5662
▁vol	-11.5662
▁Youth	-11.5663
▁Se	-11.5663
빠	-11.5665
▁완화	-11.5665
▁msg	-11.5665
▁합격	-11.5666
pr	-11.5667
련	-11.5667
▁Being	-11.5668
▁사용한	-11.5669
▁folder	-11.5674
CA	-11.5674
▁차례	-11.5675
▁승리	-11.5679
▁Democrats	-11.5683
하겠다는	-11.5687
hr	-11.5691
▁theatre	-11.5692
KB	-11.5693
▁concepts	-11.5693
▁공정	-11.5693
▁봉	-11.5695
▁Posts	-11.5696
タ	-11.5696
▁juice	-11.5697
▁/=	-11.5697
▁위기	-11.5697
▁Several	-11.5698
▁requested	-11.5698
▁공기	-11.57
▁margin	-11.57
▁Farm	-11.5701
▁화학	-11.5702
▁SM	-11.5702
기획	-11.5703
▁stood	-11.5703
인제	-11.5703
▁mistake	-11.5704
▁Resources	-11.5707
td	-11.5707
▁정책을	-11.5708
▁활용한	-11.5709
▁사이의	-11.571
▁crash	-11.5711
청양	-11.5713
▁Singapore	-11.5714
지방	-11.5716
▁류	-11.5717
▁그렇지	-11.5718
▁이내에	-11.5719
다방	-11.5719
▁speaker	-11.5719
▁participation	-11.572
▁가게	-11.5721
}=\	-11.5722
▁Ministry	-11.5722
ston	-11.5723
▁licensed	-11.5724
▁즐기는	-11.5727
NET	-11.5727
▁높다	-11.5728
▁struggle	-11.5728
▁classroom	-11.5728
ware	-11.5728
▁회장은	-11.5728
솔	-11.573
▁Par	-11.5736
af	-11.5737
▁Rick	-11.574
▁combat	-11.574
▁CS	-11.5742
모델	-11.5742
container	-11.5747
▁그만큼	-11.5747
Block	-11.5748
▁naturally	-11.5748
▁ranging	-11.5751
▁α	-11.5751
▁Pi	-11.5751
▁lie	-11.5754
▁Ali	-11.5754
▁밥	-11.5757
SC	-11.5759
▁requirement	-11.5759
▁Products	-11.5762
▁않을까	-11.5762
▁posterior	-11.5762
▁sought	-11.5764
▁watched	-11.5764
▁venue	-11.5765
폭	-11.5767
발전	-11.5768
▁나가	-11.577
▁포항	-11.5772
▁버전	-11.5774
▁chances	-11.5774
강남	-11.5775
선택	-11.5777
▁boards	-11.5778
사항	-11.5778
▁sad	-11.5778
▁가격은	-11.5781
▁Morgan	-11.5781
▁노선	-11.5782
system	-11.5783
▁지적했다	-11.5784
∙	-11.5784
amp	-11.5788
context	-11.579
▁왕복	-11.5792
▁understood	-11.5793
mid	-11.5795
▁신발	-11.5797
▁Cleveland	-11.5797
▁difficulty	-11.5801
▁galaxies	-11.5801
▁정식	-11.5802
▁가공	-11.5803
friendly	-11.5804
vi	-11.5804
▁outer	-11.5805
▁firms	-11.5805
OFF	-11.5806
▁분양	-11.5806
▁평가를	-11.5808
▁나중에	-11.5809
데이	-11.5812
밥	-11.5812
キ	-11.5812
▁조치	-11.5812
▁곡	-11.5813
▁infinite	-11.5813
▁printing	-11.5815
▁지적	-11.5816
▁Third	-11.5816
이니	-11.5818
▁삶	-11.5818
▁Language	-11.5819
▁만들어진	-11.5821
▁Maria	-11.5822
ω	-11.5823
Next	-11.5825
▁struck	-11.5826
▁커	-11.5826
▁resort	-11.5826
ibex	-11.5826
▁BE	-11.5827
ロ	-11.5827
cell	-11.5827
cha	-11.5829
II	-11.5829
▁Sprite	-11.5829
DE	-11.583
lang	-11.5831
▁Lincoln	-11.5833
web	-11.5833
▁Gary	-11.5835
▁experiments	-11.5836
▁lets	-11.5837
▁Temple	-11.5837
▁Val	-11.5838
▁작동	-11.5839
▁Tags	-11.5839
▁게다가	-11.584
Write	-11.584
▁instrument	-11.5841
▁stunning	-11.5842
▁Transportation	-11.5843
▁Israeli	-11.5843
▁Jon	-11.5845
개를	-11.5847
▁Metro	-11.5849
턴	-11.5849
▁oldest	-11.585
▁Interfaces	-11.5851
▁Orange	-11.5852
▁quantity	-11.5852
▁의견	-11.5854
▁경제적	-11.5856
학생	-11.5856
▁wondering	-11.5857
▁Alan	-11.586
청소년	-11.5862
▁volunteer	-11.5862
▁Additionally	-11.5863
▁속도	-11.5869
▁confident	-11.5871
되어야	-11.5872
▁INT	-11.5873
▁instruments	-11.5876
▁Simple	-11.5876
▁warranty	-11.5878
철원	-11.5879
사상	-11.588
▁연주	-11.588
▁즐거운	-11.5882
▁stroke	-11.5883
의령	-11.5883
▁떨어져	-11.5884
▁lab	-11.5884
혼	-11.5884
▁푸	-11.5884
cat	-11.5884
▁커플	-11.5889
▁telephone	-11.5889
▁상반기	-11.5889
▁finishing	-11.5893
▁후원	-11.5894
▁accessories	-11.5894
▁Lu	-11.5894
▁서면	-11.5896
▁mile	-11.5896
▁나올	-11.5897
▁스위트	-11.5898
▁dad	-11.5899
▁스타트업	-11.59
▁meters	-11.5901
▁declared	-11.5901
▁loaded	-11.5901
▁communicate	-11.5901
κ	-11.5902
▁classification	-11.5902
▁심지어	-11.5903
▁알바	-11.5903
▁franchise	-11.5904
▁못할	-11.5908
OUT	-11.5908
▁concerning	-11.5908
▁permit	-11.5909
▁얘기	-11.591
▁식물	-11.5911
▁Performance	-11.5912
▁++	-11.5912
▁garage	-11.5915
▁냉장고	-11.5916
ef	-11.5918
video	-11.5919
Range	-11.5919
ani	-11.5919
▁안드로이드	-11.5921
Speed	-11.5922
▁novels	-11.5926
ata	-11.5926
일오후	-11.5927
▁initiative	-11.5927
▁Stock	-11.5927
▁hitting	-11.5928
박스	-11.5929
▁유료	-11.593
▁Mc	-11.593
더라도	-11.5931
▁anymore	-11.5934
슬	-11.5937
▁항공편을	-11.5937
Pro	-11.5937
연구소	-11.5938
▁유치	-11.5938
파라다이스	-11.594
profit	-11.5941
▁Micro	-11.5941
Open	-11.5941
▁ref	-11.5942
After	-11.5944
▁Va	-11.5944
ICustomDataInput	-11.5945
겠습니다	-11.5945
▁것인가	-11.5947
▁Cape	-11.5947
ο	-11.5948
command	-11.5949
문경	-11.595
▁sequences	-11.595
님의	-11.5952
▁느낌을	-11.5952
▁periods	-11.5953
▁분야의	-11.5954
case	-11.5955
bed	-11.5955
제가	-11.5956
▁hotels	-11.5957
▁디스플레이	-11.5957
▁flour	-11.5959
▁Corps	-11.5962
▁아기	-11.5964
▁가스	-11.5967
dis	-11.5968
▁jet	-11.5968
▁riding	-11.5969
▁presidential	-11.597
▁extract	-11.597
▁fewer	-11.597
▁comic	-11.5971
▁정기	-11.5974
▁hosts	-11.5975
▁Dream	-11.5977
▁심사	-11.5977
▁ads	-11.5979
Expr	-11.5982
▁sight	-11.5983
▁dollar	-11.5984
▁하나는	-11.5984
▁잡고	-11.5987
▁Ex	-11.5987
▁characterized	-11.5987
ida	-11.599
▁양산	-11.5991
Go	-11.5993
▁Body	-11.5993
▁평소	-11.5993
▁animation	-11.5995
▁없지만	-11.5996
▁holes	-11.5997
マ	-11.5997
리는	-11.5998
▁시기	-11.5998
증평	-11.5999
했기	-11.5999
▁점은	-11.5999
▁industries	-11.6
통영	-11.6004
▁intersection	-11.6004
▁저자	-11.6005
▁photographs	-11.6006
▁반응	-11.6007
▁사용되는	-11.6007
▁header	-11.6008
▁designated	-11.6009
▁Left	-11.6009
▁Fall	-11.601
▁Mayor	-11.6011
▁Swiss	-11.6014
▁이상이	-11.6015
▁Ch	-11.6019
▁마감	-11.602
▁만날	-11.6021
해운대	-11.6021
▁Log	-11.6023
▁repeated	-11.6024
션	-11.6025
▁파워	-11.6026
▁시계	-11.6027
▁Andy	-11.6027
▁enables	-11.6028
텍	-11.6028
ウ	-11.6028
명은	-11.603
nes	-11.603
▁harder	-11.6031
テ	-11.6031
▁jazz	-11.6033
▁인테리어	-11.6033
람	-11.6034
▁Theory	-11.6034
밤	-11.6035
완주	-11.6035
▁둘째	-11.6035
▁Kids	-11.604
산청	-11.6042
▁von	-11.6042
▁signing	-11.6042
▁FA	-11.6043
▁맞춤형	-11.6046
▁여수	-11.6046
▁Sa	-11.6047
▁기업이	-11.6048
pro	-11.6048
▁○	-11.6054
▁losses	-11.6057
▁craft	-11.6058
">	-11.6058
따	-11.6058
▁phones	-11.6058
스는	-11.6059
▁Medal	-11.606
핑	-11.6061
▁Original	-11.6061
镇	-11.6061
framework	-11.6063
ors	-11.6064
▁electricity	-11.6065
▁역할	-11.6065
ado	-11.6067
ran	-11.6068
투어	-11.6069
fl	-11.6069
▁가방	-11.6072
예천	-11.6074
▁준다	-11.6075
순창	-11.6076
▁automatic	-11.6076
▁graphic	-11.6077
▁engines	-11.6077
▁troops	-11.6078
▁equally	-11.6078
▁현장에서	-11.6078
▁implies	-11.6078
▁Problem	-11.6079
▁Easy	-11.608
▁올려	-11.608
PO	-11.608
AB	-11.6081
▁ocean	-11.6082
▁singing	-11.6083
▁Mi	-11.6086
▁Connecticut	-11.609
real	-11.6091
▁Baby	-11.6092
ena	-11.6094
▁horizontal	-11.6094
좌	-11.6094
▁개봉	-11.6096
▁싶어	-11.6096
▁조절	-11.6097
잘	-11.6097
▁우리에게	-11.6097
▁tech	-11.6098
▁memories	-11.6106
▁AL	-11.6107
▁col	-11.6108
▁의심	-11.6108
▁제시	-11.6109
del	-11.6112
▁timer	-11.6112
지에	-11.6115
▁compute	-11.6115
▁대기	-11.6117
zo	-11.6119
▁SP	-11.6122
▁Dance	-11.6124
▁전북	-11.6124
▁회사는	-11.6124
▁smoke	-11.6125
▁behalf	-11.6127
▁interactions	-11.6131
▁때도	-11.6132
협	-11.6133
▁인생	-11.6134
ile	-11.6135
▁갖추고	-11.6135
}_	-11.6135
▁멀티	-11.6139
▁귀하의	-11.6141
지요	-11.6141
먼	-11.6143
tel	-11.6143
▁발달	-11.6144
▁Mini	-11.6146
▁enforcement	-11.6148
강진	-11.6148
▁evil	-11.6148
▁WITHOUT	-11.6149
▁행위	-11.6151
▁oxygen	-11.6151
om	-11.6154
▁investigate	-11.6155
element	-11.6156
▁Ms	-11.6156
▁에어	-11.6157
bf	-11.6158
▁지속적인	-11.6159
장흥	-11.616
▁Hamilton	-11.6162
メ	-11.6163
▁사장	-11.6163
▁charts	-11.6166
▁Rep	-11.6167
▁Credit	-11.6168
▁연락처	-11.6171
▁observation	-11.6172
▁pump	-11.6173
▁계	-11.6174
지고	-11.6175
▁필리핀	-11.6175
해남	-11.6177
▁우려	-11.6177
▁Harvard	-11.6177
▁prop	-11.6178
▁어렵다	-11.6178
▁Hills	-11.6181
▁세계에서	-11.6182
▁restore	-11.6183
Top	-11.6184
▁:)	-11.6185
▁personality	-11.6185
▁consent	-11.6186
▁columns	-11.6189
▁weren	-11.6191
▁GS	-11.6191
オ	-11.6191
▁생애	-11.6192
▁Think	-11.6193
▁mining	-11.6197
▁trips	-11.6198
▁예비	-11.6199
닷컴	-11.6199
시즌	-11.62
▁settled	-11.62
▁Heat	-11.6203
▁[]	-11.6206
▁가치가	-11.6206
▁부르는	-11.621
▁NCAA	-11.6211
▁의미가	-11.6212
also	-11.6212
▁literally	-11.6212
▁Sony	-11.6213
ou	-11.6218
▁아이들이	-11.6221
▁한반도	-11.6221
Method	-11.6223
▁|-	-11.6225
▁Ga	-11.6227
▁흔히	-11.623
▁census	-11.6231
▁빛	-11.6233
▁유엔	-11.6235
IF	-11.6237
sch	-11.6238
▁Give	-11.6239
コ	-11.6242
▁molecular	-11.6242
▁wealth	-11.6242
BitmapData	-11.6242
▁Environmental	-11.6242
협의회	-11.6243
▁bath	-11.6243
▁Nature	-11.6244
▁국	-11.6245
▁도매	-11.6245
▁disorders	-11.6247
고령	-11.6248
몽	-11.6248
ェ	-11.6249
▁Sen	-11.625
▁vertex	-11.625
▁adjust	-11.6251
▁instruction	-11.6252
▁Int	-11.6253
▁분위기를	-11.6254
초등학교	-11.6254
▁Utah	-11.6254
▁MB	-11.6256
▁Anna	-11.6259
▁shortly	-11.6259
▁mixing	-11.626
▁Core	-11.626
트리	-11.626
었던	-11.6261
▁진행하고	-11.6261
▁좋을	-11.6266
▁부족한	-11.6269
}$.	-11.6269
▁discussions	-11.627
υ	-11.627
▁calculation	-11.6271
▁영국의	-11.6271
▁Mid	-11.6276
▁Resort	-11.6277
▁Elementary	-11.6277
▁se	-11.6277
연합	-11.6278
함양	-11.6278
▁viewing	-11.628
▁가고	-11.6282
ide	-11.6283
▁separated	-11.6283
wing	-11.6287
축제	-11.6288
▁occasion	-11.6292
▁elsewhere	-11.6293
펜	-11.6296
▁전송	-11.6299
▁Gen	-11.6299
▁그래픽	-11.6299
옥천	-11.63
▁meals	-11.63
프로그램	-11.6302
전라남도	-11.6302
화를	-11.6304
▁좋아요	-11.6304
PA	-11.6304
▁좋지	-11.6307
▁Ver	-11.6308
▁어머니	-11.6309
oo	-11.6311
▁그저	-11.6311
▁Wild	-11.6311
▁Former	-11.6311
▁먹튀검증	-11.6312
green	-11.6313
▁meta	-11.6315
▁정보가	-11.6316
▁성능	-11.6317
▁위의	-11.6319
▁긴급	-11.6325
ification	-11.6325
행사	-11.6326
▁절약	-11.6327
equiv	-11.6328
미디어	-11.6328
시의	-11.6328
▁Sport	-11.6328
▁plasma	-11.6328
▁Songs	-11.6329
▁가죽	-11.6329
▁conservation	-11.6331
▁asset	-11.6332
▁Quality	-11.6332
▁DS	-11.6333
구나	-11.6333
▁의하여	-11.6335
▁지하철	-11.6336
Red	-11.6339
소리	-11.6339
스의	-11.6343
▁ownership	-11.6343
▁reviewed	-11.6344
blog	-11.6344
HD	-11.6345
▁stadium	-11.6347
▁운영하고	-11.6347
▁Hockey	-11.6348
▁-﻿	-11.6349
▁baking	-11.6349
▁지불	-11.6349
big	-11.6349
▁decline	-11.6351
▁lyrics	-11.6352
▁보조	-11.6352
▁시대의	-11.6353
▁theater	-11.6353
More	-11.6353
▁Hard	-11.6355
등록	-11.6356
▁defeat	-11.6357
▁앞으로도	-11.6357
▁영양	-11.6358
▁tries	-11.636
▁레드	-11.636
exception	-11.6361
청도	-11.6363
▁Sept	-11.6364
▁LP	-11.6365
skin	-11.6366
▁행사를	-11.6366
▁thermal	-11.6368
하동	-11.6368
▁종류의	-11.6369
▁maintaining	-11.6369
Token	-11.637
ob	-11.6373
▁바이오	-11.6375
▁pocket	-11.6375
▁Reading	-11.6376
▁않지만	-11.6377
▁desk	-11.6377
▁Insurance	-11.6378
☞	-11.6378
▁nose	-11.6379
ptr	-11.6379
▁farmers	-11.6379
▁뒤에	-11.6381
▁reserve	-11.6381
원이	-11.6381
▁refers	-11.6382
▁풍부한	-11.6384
▁안마	-11.6385
학원	-11.6386
▁aggressive	-11.6387
▁rail	-11.6388
▁identification	-11.639
▁받게	-11.639
dale	-11.639
▁LLC	-11.639
▁likes	-11.6392
▁아이템	-11.6392
신천	-11.6392
▁breath	-11.6393
▁식당	-11.6393
▁DE	-11.6393
▁육	-11.6394
▁생활을	-11.6394
kar	-11.6395
▁불가	-11.6395
▁damaged	-11.6398
음성	-11.64
▁사람에게	-11.6402
李	-11.6402
▁reception	-11.6402
▁documentary	-11.6402
tion	-11.6402
▁Dead	-11.6403
▁BEGIN	-11.6403
영동	-11.6404
홍성	-11.6407
▁participated	-11.6407
▁intervention	-11.6407
▁bug	-11.6409
▪	-11.641
made	-11.641
Net	-11.641
▁trigger	-11.6411
xi	-11.6412
▁notable	-11.6414
ju	-11.6415
았다	-11.6415
▁Motor	-11.6416
ren	-11.6418
▁gotten	-11.6418
place	-11.6423
▁Iron	-11.6423
LY	-11.6424
Γ	-11.6424
cast	-11.6424
Light	-11.6426
′′	-11.6428
▁Samsung	-11.6429
▁일이다	-11.6429
▁Email	-11.643
▁counts	-11.643
▁descent	-11.643
▁개편	-11.643
묘	-11.643
auto	-11.643
change	-11.6431
▁loose	-11.6432
▁excess	-11.6432
▁출력	-11.6434
▁원인	-11.6434
▁사실이	-11.6434
▁소통	-11.6435
xFF	-11.6443
▁masses	-11.6443
▁squad	-11.6444
med	-11.6445
▁detect	-11.6446
▁조기	-11.6446
LA	-11.6447
▁discovery	-11.6449
▁fever	-11.6449
su	-11.6449
▁텔레비전	-11.6449
Window	-11.645
▁universities	-11.6451
Control	-11.6451
분의	-11.6453
▁일상	-11.6454
좋은	-11.6455
또	-11.6455
▁정지	-11.6455
▁Clinton	-11.6456
▁Views	-11.6456
논산	-11.6456
▁박사	-11.6457
▁involve	-11.6457
▁날씨	-11.6457
▁상태에서	-11.6459
Menu	-11.6459
Tag	-11.6459
▁이름이	-11.646
▁실현	-11.646
ich	-11.6461
Repaired	-11.6462
혁신	-11.6463
▁keyboard	-11.6463
▁배출	-11.6465
▁pulmonary	-11.6467
▁IoT	-11.6467
▁Events	-11.6468
一	-11.6468
▁infections	-11.647
▁검찰	-11.6471
called	-11.6471
▁자연스럽게	-11.6471
홈	-11.6472
내가	-11.6473
burg	-11.6473
Complete	-11.6473
▁edx	-11.6473
ua	-11.6475
▁magnitude	-11.6476
▁Melbourne	-11.6477
▁연극	-11.6477
δ	-11.6477
▁[]{	-11.6479
코스	-11.6479
▁되기	-11.6479
▁Fame	-11.648
▁simulation	-11.6483
▁Portland	-11.6483
연천	-11.6484
▁절	-11.6486
Service	-11.6487
▁fiber	-11.6489
공간	-11.6492
현대	-11.6492
▁담긴	-11.6492
ski	-11.6493
▁통계	-11.6493
▁Link	-11.6496
본부	-11.6497
▁Tag	-11.6498
▁전망이다	-11.6499
▁삼성전자	-11.65
tau	-11.65
>(	-11.65
▁Jane	-11.6501
▁시장을	-11.6501
Shape	-11.6502
▁Response	-11.6503
▁번호	-11.6504
May	-11.6504
▁Available	-11.6506
▁더불어민주당	-11.6506
▁moderate	-11.6506
▁당연히	-11.6507
▁곳은	-11.6509
ong	-11.6509
▁releases	-11.6509
▁천연	-11.6509
▁Denver	-11.6509
▁찾고	-11.6511
▁Net	-11.6512
▁behaviour	-11.6513
Sound	-11.6514
▁Never	-11.6514
▁전면	-11.6516
channel	-11.6516
낸	-11.6517
▁노출	-11.6517
▁Swedish	-11.6518
▁선언	-11.6521
▁diagnostic	-11.6523
▁추가로	-11.6524
▁내려	-11.6524
▁골	-11.6526
▁Welcome	-11.6527
▁finger	-11.6527
통신	-11.6528
▁교사	-11.6528
▁부분은	-11.6529
전쟁	-11.6529
▁depression	-11.6529
▁measuring	-11.6533
Mo	-11.6534
▁puts	-11.6534
fish	-11.6535
자에게	-11.6537
▁tracking	-11.654
▁필	-11.6541
▁signals	-11.6542
▁Sales	-11.6543
▁responses	-11.6544
▁Solutions	-11.6547
▁displays	-11.6549
MO	-11.6549
▁Mother	-11.6552
just	-11.6555
회원	-11.6557
She	-11.6559
▁잘못된	-11.6559
▁nights	-11.6559
▁만족	-11.6559
▁mirror	-11.6559
format	-11.6561
▁regard	-11.6562
지가	-11.6563
itis	-11.6564
▁balls	-11.6564
season	-11.6567
act	-11.6567
먹튀검증	-11.6567
▁preparing	-11.6568
▁향한	-11.6569
✿	-11.657
ム	-11.6571
▁않아도	-11.6572
ative	-11.6572
▁클래식	-11.6574
▁운전	-11.6574
하여야	-11.6575
▁맨	-11.6577
▁tower	-11.6578
lon	-11.6579
▁participating	-11.658
▁vegetables	-11.658
▁contracts	-11.6581
under	-11.6581
▁Si	-11.6582
TS	-11.6582
▁파라다이스	-11.6582
▁blend	-11.6584
▁것이며	-11.6586
▁회사의	-11.6588
▁오브	-11.659
▁죽	-11.6592
괴산	-11.6593
▁기회	-11.6593
▁surrounded	-11.6593
▁문제에	-11.6594
기능	-11.6595
▁territory	-11.6598
▁celebration	-11.6601
▁na	-11.6602
▁Carl	-11.6603
▁권리	-11.6603
▁healing	-11.6605
aka	-11.6606
콜걸후기	-11.6608
▁Prior	-11.6608
▁Bruce	-11.6608
셀	-11.6608
bus	-11.6609
types	-11.6609
▁Economic	-11.661
master	-11.6611
▁Antonio	-11.6613
▁범	-11.6614
▁Ni	-11.6615
▁pixels	-11.6616
▁expenses	-11.6617
▁Additional	-11.6617
▁wake	-11.6617
▁씨는	-11.6618
▁Walker	-11.6619
▁pleasure	-11.662
▁태국	-11.662
수를	-11.6621
▁Hand	-11.6623
▁Application	-11.6623
Down	-11.6623
▁단순	-11.6624
▁engagement	-11.6625
company	-11.6625
ped	-11.6626
겠다는	-11.6626
▁gorgeous	-11.6628
pl	-11.663
▁Advanced	-11.6632
Over	-11.6634
▁Defense	-11.6636
▁hang	-11.6636
함평	-11.6636
▁방안을	-11.6639
▁anonymous	-11.6639
={	-11.664
영어	-11.664
サ	-11.6641
무안	-11.6643
▁점차	-11.6644
▁Paper	-11.6646
▁mi	-11.6646
▁크다	-11.6647
건강	-11.6652
▁Sweden	-11.6653
▁동의	-11.6654
▁경험이	-11.6655
▁Born	-11.6656
▁당일	-11.6658
▁월드	-11.6658
Con	-11.6658
文	-11.6659
▁해킹	-11.666
▁책은	-11.6661
sim	-11.6662
▁최적의	-11.6662
▁drums	-11.6664
▁Anne	-11.6666
▁정당	-11.6668
▁yard	-11.6669
▁Ca	-11.6669
▁본인	-11.6669
▁외국	-11.667
▁Pin	-11.667
▁Girls	-11.6671
▁geometry	-11.6671
▁과제	-11.6674
where	-11.6674
▁세계적인	-11.6679
▁intense	-11.668
▁solving	-11.6681
チ	-11.6681
▁labels	-11.6681
rangle	-11.6681
▁occasionally	-11.6682
▁bid	-11.6682
▁Stewart	-11.6683
▁디자이너	-11.6684
▁resolve	-11.6684
▁Affairs	-11.6685
▁Francis	-11.6687
▁창원	-11.6688
▁대선	-11.669
▁Style	-11.669
▁highlights	-11.6691
▁매주	-11.6691
▁Harris	-11.6692
▁제외한	-11.6697
▁feelings	-11.6697
ナ	-11.6697
▁visits	-11.6699
▁philosophy	-11.6699
▁말할	-11.6701
▁장식	-11.6702
▁Pittsburgh	-11.6703
seven	-11.6704
Unit	-11.6704
▁비교적	-11.6705
▁calculations	-11.6708
▁lattice	-11.6709
▁desktop	-11.6709
▁medal	-11.6711
▁Magic	-11.6713
튼	-11.6713
▁것이고	-11.6714
Properties	-11.6714
하시면	-11.6716
▁배달	-11.6716
▁satellite	-11.6717
▁enabled	-11.6718
▁시대에	-11.6719
고창	-11.6719
주세요	-11.672
HIGH	-11.6722
및	-11.6722
ib	-11.6726
PI	-11.6727
▁vessels	-11.6727
$$.	-11.6728
▁멤버	-11.6728
Call	-11.6728
▁compatible	-11.6729
▁임신	-11.6729
▁dishes	-11.6729
▁그리스	-11.673
Filter	-11.673
▁speakers	-11.6734
▁accused	-11.6735
▁나은	-11.6737
▁answered	-11.6739
객	-11.674
▁opinions	-11.674
▁화성	-11.6743
▁Culture	-11.6743
FA	-11.6743
▁소중한	-11.6743
▁방식	-11.6745
▁CALL	-11.6746
▁Assistant	-11.6746
Panel	-11.6746
▁경북	-11.6748
▁자산	-11.6748
▁Col	-11.6748
▁Working	-11.6748
Btn	-11.6749
har	-11.6749
▁specialist	-11.6749
▁titled	-11.6752
항공	-11.6752
조원	-11.6752
▁TX	-11.6755
▁fiscal	-11.6755
▁staying	-11.6756
Be	-11.6756
▁합	-11.6756
▁Dis	-11.6757
▁everybody	-11.6758
▁맛집	-11.6759
▁더블	-11.6759
put	-11.6759
ries	-11.676
탁	-11.676
▁캠페인	-11.6761
▁announcement	-11.6761
▁점검	-11.6762
▁dd	-11.6762
▁오랫동안	-11.6763
진도	-11.6763
ach	-11.6763
▁collections	-11.6764
bc	-11.6764
▁정확히	-11.6767
▁Captain	-11.6768
▁런던	-11.6768
make	-11.6769
▁형태의	-11.6771
보은	-11.6773
▁Orleans	-11.6776
fer	-11.6776
Init	-11.6776
▁screening	-11.6776
▁열기	-11.6777
▁구체적인	-11.6777
self	-11.6777
ros	-11.6778
▁penalty	-11.678
▁publish	-11.6781
▁Ti	-11.6784
▁토론	-11.6784
▁computing	-11.6786
▁Basic	-11.6786
▁기부	-11.6787
▁Township	-11.6788
ニ	-11.6788
▁functionality	-11.6792
현지시간	-11.6793
she	-11.6795
▁SE	-11.6796
▁rely	-11.6801
Big	-11.6803
two	-11.6804
▁Netherlands	-11.6806
▁독	-11.6806
▁부모	-11.6809
▁Heritage	-11.681
ery	-11.6811
▁SS	-11.6812
▁영상을	-11.6813
▁identical	-11.6813
press	-11.6814
▁당장	-11.6815
▁construct	-11.6816
▁있었는데	-11.6816
ソ	-11.6816
겨	-11.6817
▁스페셜	-11.6817
▁재료	-11.6819
▁pulse	-11.6819
▁이론	-11.6819
▁무대	-11.6819
함에	-11.6821
sel	-11.6822
거창	-11.6823
▁않기	-11.6824
얼	-11.6824
▁Father	-11.6825
▁hide	-11.6826
▁집을	-11.6829
▁packed	-11.683
カ	-11.6831
토토사이트	-11.6833
▁올랐다	-11.6834
스키	-11.6835
▁사이버	-11.6835
▁맛있는	-11.6836
▁apparent	-11.6836
렸다	-11.6838
▁Six	-11.684
▁confused	-11.6841
▁constructor	-11.6841
▁designers	-11.6842
lu	-11.6843
▁Fin	-11.6846
▁업무를	-11.6847
Back	-11.6847
▁명소	-11.6848
▁GPS	-11.6848
추가	-11.6849
▁세종	-11.6852
▁enjoying	-11.6852
▁backing	-11.6853
▁Things	-11.6855
▁제휴	-11.6856
국노	-11.6858
▁보유하고	-11.6858
▁hat	-11.686
▁Matthew	-11.686
▁때가	-11.6862
▁commission	-11.6863
▁credits	-11.6864
▁buttons	-11.6867
▁Fri	-11.6867
▁사이에서	-11.6868
▁와서	-11.687
▁Euro	-11.687
▁사용해	-11.6875
▁hired	-11.6876
▁interviews	-11.6878
▁demo	-11.6878
▁Greece	-11.688
▒	-11.6881
▁query	-11.6882
연구원	-11.6883
FS	-11.6883
맛	-11.6883
▁poll	-11.6885
▁정치인	-11.6887
▁Lane	-11.6889
▁발사	-11.689
▁lesson	-11.6891
측	-11.6892
▁강원	-11.6893
'|'	-11.6893
▁wooden	-11.6895
▁가능성을	-11.6895
양구	-11.6898
▁venues	-11.6899
▁강릉	-11.69
▁색	-11.6901
▁variation	-11.6902
▁Mission	-11.6903
▁Hence	-11.6906
px	-11.6906
무주	-11.6907
▁메모리	-11.6909
영암	-11.6913
Home	-11.6914
▁fired	-11.6914
♭	-11.6914
▁Coach	-11.6914
충청남도	-11.6915
▁작	-11.6915
▁muscles	-11.6916
▁focuses	-11.6917
▁golden	-11.6919
티켓	-11.6919
▁scenario	-11.6921
▁publishing	-11.6922
▁세포	-11.6923
▁개인의	-11.6924
▁★	-11.6924
▁satisfied	-11.6927
▁Money	-11.6927
안마방	-11.6928
▁pen	-11.6929
script	-11.6931
fe	-11.6932
▁capability	-11.6933
▁romantic	-11.6936
cs	-11.6936
▁풍	-11.6937
▁함께하는	-11.6938
▁활용해	-11.6939
▁충분한	-11.6939
▁Poland	-11.694
▁Speed	-11.6941
▁Could	-11.6942
IS	-11.6943
▁FL	-11.6943
▁에어컨	-11.6944
▁Jose	-11.6944
▁Wind	-11.6944
子	-11.6945
도가	-11.6946
▁화려한	-11.6947
▁bills	-11.6947
▁Bishop	-11.6948
▁확실히	-11.695
▁Norway	-11.695
▁trials	-11.695
ct	-11.6951
▁양성	-11.6951
▁residence	-11.6954
▁올라	-11.6954
억원을	-11.6955
▁Han	-11.6955
▁Editor	-11.6955
◆	-11.6956
▁trauma	-11.6957
짐	-11.6958
▁pride	-11.6959
▁생각해	-11.6959
▁medication	-11.6959
▁것인지	-11.6961
▁Currently	-11.6961
부문	-11.6963
단지	-11.6963
▁빅	-11.6963
▁Audio	-11.6964
▁cardiac	-11.6966
▁요금이	-11.6967
배송	-11.6968
출장오피	-11.6968
▁Spirit	-11.6969
ice	-11.6972
▁않으며	-11.6973
▁alpha	-11.6973
▁김해	-11.6973
▁염	-11.6974
istic	-11.6974
제작	-11.6975
▁공주	-11.6975
▁Doctor	-11.6975
했어요	-11.6976
▁sensitivity	-11.6976
RW	-11.6977
▁BMW	-11.6977
▁정비	-11.6978
Controller	-11.6978
▁Trans	-11.6978
▁Future	-11.6978
ハ	-11.6979
lee	-11.6983
▁이전에	-11.6985
flash	-11.6985
▁전개	-11.6986
▁정보는	-11.6987
▁가능하며	-11.6987
▁tags	-11.6987
▁현재는	-11.6988
▁Everyone	-11.6989
▁attempted	-11.699
store	-11.699
▁올바른	-11.699
♬	-11.6991
년생	-11.6992
▁오일	-11.6992
▁aimed	-11.6994
하우스	-11.6996
▁dreams	-11.6997
COM	-11.6998
RE	-11.6999
▁ski	-11.6999
ミ	-11.7
시민	-11.7
▁developer	-11.7002
Loop	-11.7002
마케팅	-11.7003
▁직	-11.7003
▁상대적으로	-11.7004
▁적극적인	-11.7004
▁Foreign	-11.7005
▁Front	-11.7008
▁Trump	-11.7009
▁◇	-11.701
▁SQL	-11.7011
tor	-11.7012
SO	-11.7013
▁Russell	-11.7013
▁고양이	-11.7013
GS	-11.7014
▁IBM	-11.7014
▁inverse	-11.7015
▁coordinate	-11.7016
금산	-11.7016
blue	-11.7016
▁HIV	-11.7016
공장	-11.7016
▁공사	-11.7017
▁복합	-11.7017
▁더보기	-11.7018
▁survive	-11.7018
▁Mississippi	-11.7019
▁뜻	-11.7019
▁exhibit	-11.7019
▁Results	-11.7021
▁생각하고	-11.7024
확인	-11.7024
▁destroy	-11.7025
▁그러한	-11.7026
▁Friends	-11.7027
▁decent	-11.7028
matrix	-11.7029
▁스토리	-11.7029
으	-11.703
▁fastest	-11.703
▁치료를	-11.703
illa	-11.7031
▁놀라운	-11.7032
학습	-11.7032
▁창조	-11.7035
▁결과가	-11.7036
SE	-11.7039
▁dramatic	-11.7041
AD	-11.7042
▁organ	-11.7042
▁영화를	-11.7045
▁tired	-11.7046
▁Turn	-11.7046
▁Louisiana	-11.7046
▁vectors	-11.7046
이므로	-11.7046
▁방향으로	-11.7047
▁제조업체	-11.705
▁옷	-11.7051
rel	-11.7052
▁접속	-11.7052
▁운동을	-11.7053
▁refused	-11.7053
혀	-11.7053
▁significance	-11.7053
▁rough	-11.7054
▁suddenly	-11.7054
▁Egypt	-11.7054
▁Intel	-11.7055
홍천	-11.7055
교사	-11.7056
▁나섰다	-11.7058
부평	-11.7059
▁athletes	-11.7059
axis	-11.7059
▁현금	-11.7061
▁바람	-11.7062
▁closure	-11.7062
▁Gordon	-11.7065
Step	-11.7065
▁execute	-11.7067
▁Muslim	-11.7068
ett	-11.7069
▁Construction	-11.7071
▁생명	-11.7072
▁조각	-11.7073
됨	-11.7074
▁Industry	-11.7074
▁Gas	-11.7075
▁appreciated	-11.7075
SK	-11.7075
▁producers	-11.7076
▁알아	-11.7077
▁새벽	-11.7079
▁발급	-11.708
▁이스라엘	-11.708
▁voting	-11.708
▁assembly	-11.7081
▁부인	-11.7081
▁seeds	-11.7083
▁afraid	-11.7084
gui	-11.7085
▁mv	-11.7085
▁algebra	-11.7086
▁immune	-11.7087
▁Mad	-11.7087
▁Mix	-11.7088
▁mc	-11.7088
▁이름은	-11.709
맘	-11.7091
></	-11.7091
▁Alliance	-11.7092
▁Comment	-11.7093
▁녹음	-11.7093
▁median	-11.7093
▁enterprise	-11.7094
▁담	-11.7094
▁respective	-11.7094
수는	-11.7094
split	-11.7095
▁None	-11.7096
ris	-11.7096
▁focusing	-11.7096
▁롤	-11.7101
원의	-11.7101
▁trick	-11.7102
▁가면	-11.7104
{}	-11.7104
Now	-11.7106
addr	-11.7107
▁Steel	-11.7108
▁Unless	-11.7109
▁GM	-11.7109
▁특성	-11.7111
▁thousand	-11.7112
▁holidays	-11.7114
▁발송	-11.7114
▁Judge	-11.7116
▁듯한	-11.7117
▁incredibly	-11.7117
▁mask	-11.7118
▁한국인	-11.7119
▁somehow	-11.712
ups	-11.7121
▁rational	-11.7125
▁크리스마스	-11.7125
른	-11.7127
▁ordinary	-11.7127
▁Apache	-11.7127
▁국내외	-11.7128
▁보입니다	-11.7129
▁unlike	-11.713
▁precision	-11.7131
ene	-11.7132
법을	-11.7133
▁용인	-11.7137
▁laptop	-11.7138
▁plug	-11.7141
▁guilty	-11.7142
▁el	-11.7143
▁경기를	-11.7143
▁자금	-11.7145
타운	-11.7146
만한	-11.7146
▁너	-11.7146
▁consequences	-11.7147
Integer	-11.7148
▁receiver	-11.7149
▁변화가	-11.7152
▁hell	-11.7152
▁millis	-11.7153
▁기본적으로	-11.7154
다운	-11.7154
▁Fish	-11.7154
▁breaks	-11.7154
▁GT	-11.7155
▁clip	-11.7156
▁항공권을	-11.7156
ij	-11.7157
▁carries	-11.7157
▁초청	-11.7158
▁Jerry	-11.7158
▁Independent	-11.7158
▁emphasis	-11.7159
▁cotton	-11.7159
▁ban	-11.716
▁사용자가	-11.7161
▁만들었다	-11.7162
비를	-11.7162
▁females	-11.7164
클	-11.7164
▁취득	-11.7165
]{	-11.7166
▁mood	-11.7167
▁논	-11.7167
▁Biography	-11.7167
▁weird	-11.7168
▁physician	-11.7171
▁시작된	-11.7171
after	-11.7172
▁오늘날	-11.7173
▁tile	-11.7173
▁publications	-11.7175
▁pushed	-11.7175
▁invest	-11.7175
부여	-11.7176
▁Boys	-11.7176
▁대만	-11.7176
▁mortgage	-11.7177
week	-11.7178
▁노트북	-11.7178
ノ	-11.7178
▁쉽고	-11.7179
▁cameras	-11.7181
LOW	-11.7182
▁threshold	-11.7183
▁파티	-11.7187
▁개혁	-11.7187
▁Protection	-11.7187
▁군산	-11.7187
▁connecting	-11.7188
▁칩	-11.7191
계약	-11.7191
▁pursue	-11.7193
▁이용하는	-11.7193
dev	-11.7193
▁참석	-11.7194
업무	-11.7195
▁servo	-11.7195
LE	-11.7196
▁analogWrite	-11.7196
▁아트	-11.7197
▁Arduino	-11.7199
▁τ	-11.7201
ari	-11.7201
텐	-11.7202
었는데	-11.7204
▁제목	-11.7206
음식	-11.7206
モ	-11.7207
▁Bureau	-11.7209
▁len	-11.7209
글로벌	-11.7209
Log	-11.721
▁관련한	-11.7211
▁Arthur	-11.7212
▁내고	-11.7214
▁evaluated	-11.7216
▁painted	-11.7218
▁flower	-11.722
▁대학생	-11.7221
sc	-11.7221
▁방어	-11.7222
▁starling	-11.7222
▁Tea	-11.7223
▁싶습니다	-11.7223
와는	-11.7224
▁미세먼지	-11.7224
▁DO	-11.7225
Property	-11.7225
▁세금	-11.7225
▁bold	-11.7225
▁SUV	-11.7226
▁해양	-11.7226
▁guaranteed	-11.7226
ay	-11.7228
세의	-11.7228
학기	-11.7229
▁pregnant	-11.7231
▁SO	-11.7231
▁coefficients	-11.7231
Self	-11.7231
로서의	-11.7232
▁innings	-11.7233
▁Overall	-11.7234
▁pricing	-11.7236
▁Wayne	-11.7237
▁Urban	-11.7237
▁Cancer	-11.7237
▁mathematical	-11.7237
▁그러면서	-11.7239
▁parish	-11.724
▁Vancouver	-11.7242
▁거부	-11.7243
▁등록된	-11.7243
▁belt	-11.7244
▁representatives	-11.7245
▁연습	-11.7245
LG	-11.7247
▁선택할	-11.7247
NA	-11.7247
▁complexity	-11.7247
▁talented	-11.7251
ホ	-11.7252
▁mayor	-11.7252
ツ	-11.7253
▁precise	-11.7254
▁cookies	-11.7254
▁살짝	-11.7255
▁targets	-11.7255
▁boss	-11.7256
▁stomach	-11.7257
▁비용을	-11.7257
ku	-11.7258
▁drag	-11.7259
틴	-11.7259
▁Production	-11.726
푸	-11.7261
▁accompanied	-11.7263
▁청구	-11.7264
▁wing	-11.7264
▁clinic	-11.7265
▁Fast	-11.7265
▁편안한	-11.7266
▁tennis	-11.7267
timer	-11.7267
아동	-11.7268
▁Springs	-11.727
밍	-11.727
▁하나가	-11.7271
스러운	-11.7271
Current	-11.7272
▁universal	-11.7272
이든	-11.7272
하겠다고	-11.7272
▁forth	-11.7273
▁VR	-11.7275
▁언제든지	-11.7277
▁curves	-11.7277
email	-11.7277
Title	-11.7277
▁rescue	-11.7278
▁asks	-11.7278
▁고백	-11.7278
▁classified	-11.7279
▁protocol	-11.7281
▁흡수	-11.7288
오는	-11.7289
▁혐의로	-11.729
rie	-11.7293
▁wet	-11.7293
▁Greg	-11.7295
gl	-11.7295
▁intra	-11.7296
조직	-11.7297
(!	-11.7298
▁drinks	-11.7298
▁환불	-11.7299
▁heating	-11.7299
▁lateral	-11.7301
▁Reserve	-11.7302
태안	-11.7303
▁Fred	-11.7305
▁XML	-11.7307
▁associate	-11.7308
▁mountains	-11.7311
대는	-11.7313
출장샵예약	-11.7313
스포츠토토	-11.7314
보는	-11.7314
▁상자	-11.7317
▁발굴	-11.7317
▁Yu	-11.7318
ヤ	-11.7319
▁Jews	-11.732
▁지나	-11.7321
▁progressive	-11.7322
칠곡	-11.7322
▁Arab	-11.7322
▁ultra	-11.7323
▁Everything	-11.7324
▁Talk	-11.7324
▁Stop	-11.7324
▁마음으로	-11.7326
▁⇒	-11.7326
▁비상	-11.7327
용품	-11.7327
▁맛이	-11.7328
pp	-11.7329
▁떨어진	-11.7329
▣	-11.7331
▁coal	-11.7333
eax	-11.7334
▁OUT	-11.7334
▁responded	-11.7334
▁hanging	-11.7335
▁bench	-11.7337
tal	-11.7337
▁directors	-11.7337
▁김영	-11.7339
▁다리	-11.734
▁언급	-11.7341
▁Input	-11.7346
ヒ	-11.7346
차량	-11.7348
BA	-11.735
▁취	-11.735
cur	-11.735
ue	-11.7351
웨이	-11.7352
such	-11.7352
▁아닌가	-11.7353
▁Lawrence	-11.7355
▁발전을	-11.7356
▁구분	-11.7356
▁능력	-11.7357
ow	-11.7359
재단	-11.7361
▁emerging	-11.7361
▁util	-11.7365
▁벽	-11.7365
EB	-11.7366
클럽	-11.7368
▁Between	-11.7369
*}	-11.7369
Port	-11.7373
EA	-11.7374
▁직장	-11.7374
▁Know	-11.7376
github	-11.7377
▁Dog	-11.7378
▁ᄒᄒ	-11.7378
▁panels	-11.7379
▁lone	-11.7379
gar	-11.738
내용	-11.7381
서천	-11.7382
▁insight	-11.7383
▁기분	-11.7383
시부터	-11.7383
▁captain	-11.7385
기구	-11.7386
_\	-11.7386
▁Custom	-11.7387
▁대책	-11.7387
▁오래된	-11.7387
ric	-11.7388
▁concluded	-11.7389
▁parks	-11.7391
▁구성되어	-11.7393
해주세요	-11.7394
▁나도	-11.7395
▁admit	-11.7395
▁Switzerland	-11.7396
▁Chairman	-11.7397
▁출판	-11.7397
search	-11.7398
▁육성	-11.7399
▁Fun	-11.74
위로	-11.7401
▁drives	-11.7403
▁suppose	-11.7403
▁patch	-11.7404
▁춘천	-11.7404
▁미국에서	-11.7405
▁적합한	-11.7405
▁경고	-11.7405
▁acquisition	-11.7406
▁attitude	-11.7406
출장샵추천	-11.7407
▁불교	-11.741
▁Vietnam	-11.741
안전놀이터	-11.7411
▁surfaces	-11.7412
칼	-11.7412
▁연합	-11.7413
▁Much	-11.7414
▁Ok	-11.7416
▁좋고	-11.7416
▁오피	-11.7417
▁pr	-11.7417
▁disaster	-11.7418
척	-11.7418
▁passengers	-11.7419
▁악	-11.742
사건	-11.7421
▁한국에서	-11.7422
▁angles	-11.7422
▁취임	-11.7422
▁합법	-11.7423
▁promoted	-11.7424
▁분명	-11.7425
▁Ty	-11.7426
bank	-11.7426
▁instant	-11.7429
▁rows	-11.743
▁binding	-11.743
▁applies	-11.743
▁charity	-11.7431
▁Course	-11.7434
▁pipe	-11.7435
▁단일	-11.7435
usepackage	-11.7436
▁음악을	-11.7436
▁의무	-11.7437
▁grounds	-11.744
tu	-11.7441
▁Justin	-11.7441
▁trains	-11.7442
bb	-11.7442
▁elevated	-11.7444
장애	-11.7444
울진	-11.7445
even	-11.7446
구례	-11.7447
▁coat	-11.7447
▁Phoenix	-11.7447
▁CR	-11.7447
comp	-11.7447
▁demands	-11.7447
▁생긴	-11.7449
▁대박	-11.745
▁config	-11.745
▁CBS	-11.7451
▁Vec	-11.7451
van	-11.7453
▁chip	-11.7453
체험	-11.7453
▁이야기가	-11.7454
▁environments	-11.7454
▁문제로	-11.7455
▁파괴	-11.7455
total	-11.7456
▁질문에	-11.7456
▁temple	-11.7456
▁멀리	-11.7457
▁Choose	-11.7459
▁시장은	-11.746
▁genes	-11.746
▁분위기	-11.7461
만으로	-11.7461
tail	-11.7462
▁하나님	-11.7463
plus	-11.7464
하시고	-11.7464
▁과일	-11.7465
▁부천	-11.7466
▁읽기	-11.7467
께	-11.7469
▁법인	-11.747
▁오른	-11.7471
▁stem	-11.7472
▁Salt	-11.7473
영월	-11.7479
IC	-11.7479
▁footballer	-11.7481
fill	-11.7482
▁cups	-11.7483
오늘	-11.7484
▁Fe	-11.7484
▁bleeding	-11.7484
경상남도	-11.7485
▁커버	-11.7486
▁consisting	-11.7486
혈	-11.7486
▁신체	-11.749
▁ds	-11.749
임실	-11.7492
▁많습니다	-11.7492
▁SW	-11.7493
▁targeted	-11.7493
▁조금씩	-11.7493
▁strain	-11.7493
▁opens	-11.7494
▁presenting	-11.7494
▁Related	-11.7495
controls	-11.7496
▁단위	-11.7497
MT	-11.7497
▁본선	-11.7499
▁execution	-11.75
름	-11.75
#,	-11.7501
서를	-11.7502
▁Douglas	-11.7503
▁곳으로	-11.7504
▁패턴	-11.7504
▁Ask	-11.7505
Don	-11.7509
pass	-11.7512
▁Cut	-11.7514
▁조합	-11.7515
▁뭔가	-11.7515
ワ	-11.7516
▁Pass	-11.7516
swf	-11.7518
▁콜걸	-11.7518
▁regime	-11.7521
▁Content	-11.7522
▁Brooklyn	-11.7522
▁unlikely	-11.7522
lam	-11.7524
▁성과	-11.7527
죽	-11.753
▁boolean	-11.753
ケ	-11.7531
▁diversity	-11.7532
▁operates	-11.7532
▁Falls	-11.7532
▁시내	-11.7532
▁FAILED	-11.7533
▁assignment	-11.7533
URL	-11.7534
▁deeper	-11.7535
▁콘서트	-11.7537
신안	-11.7538
hu	-11.7538
▁비행	-11.7538
▁rated	-11.7539
▁Orchestra	-11.7539
▁governing	-11.7539
압	-11.754
▁kidney	-11.7541
울산	-11.7541
▁biopsy	-11.7543
▁Opera	-11.7543
セ	-11.7545
분전	-11.7545
▁satisfaction	-11.7546
▁Albert	-11.7547
▁목표를	-11.7547
▁mono	-11.7548
▁낼	-11.7548
▁축소	-11.7549
▁metric	-11.7549
▁hill	-11.7549
▁상위	-11.7549
▁certificate	-11.7551
▁promoting	-11.7552
충청북도	-11.7553
밖에	-11.7553
▁전세계	-11.7554
⟨	-11.7555
▁금연	-11.7555
▁integers	-11.7556
▁frames	-11.7557
▁NHL	-11.7558
王	-11.7558
구매	-11.7558
▁임상	-11.7559
▁콘텐츠를	-11.756
▁버튼을	-11.756
▁movements	-11.7561
▁whilst	-11.7563
▁Electric	-11.7565
잉	-11.7567
▁지닌	-11.7567
▁dynamics	-11.7569
▁담아	-11.7569
시까지	-11.7569
감독	-11.757
sort	-11.7571
▁elementary	-11.7571
▁Christopher	-11.7571
▁제공할	-11.7571
▁교	-11.7571
Body	-11.7572
등을	-11.7572
습	-11.7573
▁방향	-11.7574
▁코인	-11.7574
background	-11.7575
▁Complete	-11.7575
▁거대한	-11.7576
Pointer	-11.7579
エ	-11.7582
▁rid	-11.7586
▁grass	-11.7586
▁hospitals	-11.7586
아파트	-11.7589
이야기	-11.7589
▁arranged	-11.7589
elle	-11.759
face	-11.759
▁쇼핑몰	-11.7591
▁참석한	-11.7591
▁cr	-11.7593
▁backup	-11.7594
▁방안	-11.7598
▁분들은	-11.7598
▁Display	-11.7598
▁형	-11.76
▁내는	-11.7601
▁음료	-11.7601
이지	-11.7602
▁도서관	-11.7603
▁소식을	-11.7604
▁공략	-11.7604
▁손에	-11.7605
교통	-11.7606
▁오른쪽	-11.7607
▁mri	-11.7608
▁부부	-11.7609
▁carcinoma	-11.761
헤	-11.7611
▁sees	-11.7611
▁측	-11.7611
▁suc	-11.7614
▁골드	-11.7614
▁메시지를	-11.7615
rt	-11.7616
▁Native	-11.7617
ヨ	-11.7618
▁macro	-11.762
▁협상	-11.7621
sk	-11.7621
esi	-11.7621
jo	-11.7622
▁형태	-11.7622
간의	-11.7624
장으로	-11.7624
☜	-11.7625
▁보급	-11.7625
▁다섯	-11.7626
▁Afghanistan	-11.7626
(&	-11.7626
▁쿠	-11.7627
▁제기	-11.7629
▁recall	-11.7629
▁elegant	-11.763
▁나쁜	-11.7631
▁동네	-11.7631
Sensor	-11.7632
AT	-11.7633
Rectangle	-11.7633
▁구현	-11.7634
▁Attorney	-11.7636
▁Peace	-11.7637
▁주거	-11.7637
▁brilliant	-11.7638
price	-11.7638
▁analog	-11.764
▁aims	-11.7641
▁controller	-11.7641
▁보증금	-11.7641
▁recover	-11.7648
▁투표	-11.7648
▁assuming	-11.765
Utils	-11.7653
▁화재	-11.7653
▁세상에	-11.7653
▁통제	-11.7653
▁차이	-11.7654
▁Thompson	-11.7654
Rect	-11.7656
LEFT	-11.7656
▁집행	-11.7656
▁rolling	-11.7658
▁오토	-11.7661
▁veteran	-11.7662
▁농	-11.7663
ネ	-11.7663
TIME	-11.7664
▁NULL	-11.7664
▁단어	-11.7665
▁insert	-11.7666
앱	-11.7666
▁belief	-11.7667
▁arrest	-11.7667
▁struggling	-11.7667
▁Range	-11.7669
▁moon	-11.767
▁Sri	-11.7671
▁위성	-11.7672
\":	-11.7672
El	-11.7672
▁개발한	-11.7674
phone	-11.7675
▁SF	-11.7675
▁표기	-11.7675
▁조치를	-11.7676
물을	-11.7677
Link	-11.7677
▁deeply	-11.768
화순	-11.768
▁하반기	-11.768
▁Remove	-11.768
▁Authority	-11.7682
wan	-11.7682
▁Roger	-11.7682
통합	-11.7683
▁영향	-11.7684
▁Release	-11.7687
▁성남	-11.7688
rin	-11.7691
▁PD	-11.7694
▁셔츠	-11.7695
Power	-11.7695
▁timing	-11.7697
담양	-11.7697
CL	-11.7698
눈	-11.7701
▁nervous	-11.7702
▁달려	-11.7703
▁강제	-11.7705
콜걸샵	-11.7706
▁TABLE	-11.7706
▁방식을	-11.7706
▁벗어나	-11.7707
▁interpretation	-11.7708
▁tft	-11.771
TA	-11.7711
▁je	-11.7711
▁Cast	-11.7712
엠	-11.7712
indexOf	-11.7712
ken	-11.7712
ations	-11.7713
▁Maine	-11.7713
▁branches	-11.7713
▁아이가	-11.7713
▁numerical	-11.7715
note	-11.7715
vin	-11.7715
▁Tokyo	-11.7716
▁CC	-11.7716
일보	-11.7718
▁무려	-11.7719
TR	-11.7723
ユ	-11.7724
▁DEC	-11.7724
▁이슈	-11.7726
▁sons	-11.7726
▁Finance	-11.7727
▁오피스	-11.773
착	-11.773
▁아닐까	-11.7731
성주	-11.7732
▁educated	-11.7732
▁Trail	-11.7733
제로	-11.7733
▁제품에	-11.7734
▁계약을	-11.7734
▁복원	-11.7734
▁Die	-11.7737
▁grammar	-11.7737
▁exceptional	-11.774
생산	-11.7742
▁순서	-11.7743
▁보면서	-11.7743
▁slope	-11.7743
▁동기	-11.7743
▁마이	-11.7745
▁Spa	-11.7746
▁reactions	-11.7746
IR	-11.7748
▁sole	-11.775
영덕	-11.775
▁땅	-11.7751
▁사용하면	-11.7751
▁Unlike	-11.7752
▁Person	-11.7754
▁하자	-11.7756
▁쌀	-11.7758
▁consistently	-11.7758
good	-11.776
▁substitute	-11.7765
▁Dictionary	-11.7765
월드	-11.7766
▁flights	-11.7766
보니	-11.7767
▁Import	-11.7767
▁convenience	-11.7768
◊	-11.7768
전에	-11.7769
rest	-11.7769
▁입금	-11.777
♧	-11.777
▁서비스가	-11.777
▁theoretical	-11.7771
▁칸	-11.7771
▁북미	-11.7772
▁assess	-11.7773
▁Im	-11.7776
Min	-11.7776
▁Ham	-11.7777
▁Days	-11.7778
REF	-11.7778
CR	-11.7779
▁말은	-11.7779
▁몸에	-11.7779
▁연계	-11.778
▁Cor	-11.7781
abap	-11.7781
▁개통	-11.7781
wide	-11.7784
▁참여한	-11.7785
▁libraries	-11.7786
ably	-11.7787
how	-11.7787
하다가	-11.7788
의원	-11.7788
▁보존	-11.7789
▁관찰	-11.7789
tex	-11.779
▁족보	-11.7792
▁제정	-11.7794
▁Answer	-11.7794
▁스트레스	-11.7796
▁입을	-11.7798
ó	-11.7798
출장아가씨	-11.7798
▁tract	-11.7799
section	-11.7801
ified	-11.7802
▁논란이	-11.7804
Vec	-11.7804
lar	-11.7806
성장	-11.7806
▁agricultural	-11.7806
▁Susan	-11.7807
sized	-11.7807
▁expanding	-11.7808
▁Jonathan	-11.7808
▁addressed	-11.7808
▁modes	-11.7808
▁애완동물	-11.7812
zer	-11.7815
▁계절	-11.7816
▁놀이	-11.7816
▁요소	-11.7816
레스	-11.7817
▁gaming	-11.7817
▁가상	-11.7818
▁Years	-11.7818
replace	-11.7819
▁셈이다	-11.782
▁넣고	-11.782
▁무기	-11.7821
▁Race	-11.7821
▁마카오	-11.7821
▁탭	-11.7821
expression	-11.7821
oh	-11.7822
▁반영	-11.7823
▁Rule	-11.7823
▁formerly	-11.7825
▁Ge	-11.7826
buf	-11.7827
yan	-11.7829
English	-11.7829
▁movb	-11.7829
▁독서	-11.7829
{{	-11.783
▁자유롭게	-11.7831
▁믿고	-11.7831
원은	-11.7832
▁purchasing	-11.7832
▁Pet	-11.7834
▁pc	-11.7834
▁아래와	-11.7835
▁복구	-11.7835
▁못해	-11.7835
Nat	-11.7835
▁개시	-11.7837
군요	-11.784
▁인력	-11.7844
▁Figure	-11.7845
▁응원	-11.7846
마저	-11.7847
gi	-11.7847
▁브라질	-11.7849
▁mill	-11.7851
▁하니	-11.7851
▁Nothing	-11.7852
감을	-11.7852
▁임금	-11.7853
▁헤어	-11.7853
Cell	-11.7856
▁−	-11.7856
▁tackle	-11.7857
주간	-11.7859
xy	-11.7862
▁건조	-11.7863
힐	-11.7863
곡성	-11.7864
Script	-11.7864
▁cord	-11.7864
via	-11.7865
군의	-11.7867
▁Fan	-11.7869
▁pixel	-11.7869
지수	-11.7871
장의	-11.7871
select	-11.7872
▁테마	-11.7872
▁<=>	-11.7872
SI	-11.7873
▁기본적인	-11.7873
중학교	-11.7874
▁상품의	-11.7874
▁Adams	-11.7876
▁buried	-11.7876
▁sw	-11.7876
ging	-11.7877
▁Returns	-11.7879
미래	-11.7881
▁아래의	-11.7882
▁잡아	-11.7882
▁투입	-11.7883
샵	-11.7883
▁neutral	-11.7883
▁seventh	-11.7885
▁천안	-11.7886
▁날짜	-11.7886
▁editing	-11.7888
단양	-11.7888
▁신설	-11.7889
▁Wine	-11.789
▁routes	-11.7892
▁Enter	-11.7892
▁말했습니다	-11.7893
RS	-11.7895
Stage	-11.7897
▁suffer	-11.7897
▁핫	-11.7898
gt	-11.7898
▁wash	-11.7899
함이	-11.7899
▁Writing	-11.7901
к	-11.7902
▁여성의	-11.7903
▁다르다	-11.7903
한테	-11.7903
▁clicking	-11.7905
♫	-11.7905
▁배포	-11.7906
▁격	-11.7906
ward	-11.7908
▁blow	-11.7911
▁Wright	-11.7912
▁EXPORTING	-11.7914
▁Villa	-11.7916
▁stops	-11.7918
☠	-11.7919
▁undefined	-11.7919
▁zcx	-11.792
▁휴가	-11.792
▁부상	-11.792
most	-11.7921
Embed	-11.7923
ble	-11.7927
▁Kennedy	-11.7928
▁merely	-11.7928
Skin	-11.7929
엄	-11.7929
▁Robinson	-11.793
▁Kings	-11.793
▁Sand	-11.793
▁우리를	-11.793
▁tablet	-11.7931
후기	-11.7931
▁Sha	-11.7932
▁Ku	-11.7933
선을	-11.7935
▁remarkable	-11.7935
▁fantasy	-11.7937
$$,	-11.7937
▁아산	-11.7942
▁variations	-11.7942
▁여러분의	-11.7943
▁initialize	-11.7944
동인천	-11.7944
식을	-11.7946
▁lady	-11.7947
▁회	-11.7947
iso	-11.7948
Black	-11.7948
Note	-11.7948
▁이행	-11.7949
▁체	-11.795
▁impression	-11.7951
▁vascular	-11.7951
▁beef	-11.7952
AA	-11.7952
▁Tell	-11.7952
서귀포	-11.7952
rule	-11.7957
▁실무	-11.7958
▁Mat	-11.7958
▁그럼에도	-11.7958
▁동부	-11.7958
▁사항은	-11.7959
▁특허	-11.796
▁Labor	-11.796
▁Lower	-11.7961
ebp	-11.7962
▁vertices	-11.7964
▁bulk	-11.7965
▁Tar	-11.7967
ESP	-11.7968
▁Son	-11.7969
fs	-11.797
front	-11.797
▁단순한	-11.7973
▁shirt	-11.7973
delay	-11.7975
}^{\	-11.7975
▁&=	-11.7977
▁자리에	-11.7977
▁모른다	-11.7977
사고	-11.7977
▁Penn	-11.7978
천원	-11.7979
▁낸	-11.7981
▁celebrated	-11.7981
▁Deep	-11.7982
▁courts	-11.7984
▁Large	-11.7985
▁토지	-11.7985
▁그게	-11.7986
▁wrap	-11.7986
▁deposit	-11.7987
entry	-11.7987
▁Charlie	-11.7987
성인	-11.7987
sy	-11.7988
▁검	-11.799
▁전기차	-11.7992
▁tooth	-11.7993
▁align	-11.7993
▁slide	-11.7995
▁예능	-11.7997
▁비판	-11.7997
▁Josh	-11.7998
▁cancel	-11.8
▁흑	-11.8001
▁Statistics	-11.8001
▁eliminate	-11.8003
gov	-11.8004
▁현실	-11.8004
fire	-11.8006
▁passenger	-11.8006
▁진행된	-11.8007
▁되었고	-11.8007
▁vintage	-11.8008
▁arrow	-11.801
▁assists	-11.801
▁smell	-11.8012
☁	-11.8012
?!	-11.8013
역사	-11.8013
tv	-11.8014
▁thinks	-11.8015
▁flip	-11.8015
fold	-11.8018
ヘ	-11.8021
▁환	-11.8022
▁크고	-11.8023
▁된다는	-11.8025
▁powered	-11.8025
▁Kit	-11.8026
ζ	-11.8026
▁다이어트	-11.8027
▁denied	-11.8028
▁동일	-11.803
▁스크린	-11.803
▁성장을	-11.803
주고	-11.803
nan	-11.803
]$	-11.803
▁Clear	-11.8032
▁실적	-11.8032
▁운용	-11.8032
씨의	-11.8033
vector	-11.8034
▁Sal	-11.8037
기의	-11.8038
▁아니지만	-11.8038
리스트	-11.804
▁bx	-11.8041
▁연구를	-11.8041
▁상태로	-11.8042
▁Steven	-11.8043
▁beta	-11.8043
▁Walk	-11.8044
✖	-11.8045
▁bl	-11.8045
▁Upon	-11.8045
▁니	-11.8045
▁별도로	-11.8046
▁lawyers	-11.8048
▁Rich	-11.8048
trans	-11.805
▁headquarters	-11.805
세가	-11.8051
▁특	-11.8052
▁사회의	-11.8052
▁Ram	-11.8052
▁certification	-11.8053
▁flexibility	-11.8054
▁gravity	-11.8054
▁substance	-11.8055
▁창출	-11.8055
▁계속해서	-11.8057
▁않았습니다	-11.8058
SM	-11.8059
▁Political	-11.8059
sha	-11.8059
▁Gulf	-11.806
▁Federation	-11.8062
♟	-11.8063
":{"	-11.8063
▁있었지만	-11.8065
▁journalist	-11.8065
▁Visual	-11.8065
Scale	-11.8066
폐	-11.8068
▁여부를	-11.8069
ans	-11.8069
▁networking	-11.8069
ヌ	-11.807
▁Ban	-11.8071
▁제품이	-11.8071
▁비가	-11.8072
⇒	-11.8072
▁SR	-11.8072
몬	-11.8072
▁replacing	-11.8074
▁나에게	-11.8075
☇	-11.8076
전라북도	-11.8078
경마	-11.808
▁hook	-11.8081
▁Seoul	-11.8082
▁Tel	-11.8084
▁임시	-11.8086
◘	-11.8086
▁venture	-11.8087
▁시청	-11.8088
☂	-11.8088
▁buyers	-11.809
▁publisher	-11.809
▁Too	-11.8092
▁Academic	-11.8093
진다	-11.8093
cong	-11.8094
▁Snow	-11.8095
▁Experience	-11.8098
News	-11.8099
유럽	-11.81
오피스	-11.81
▁정규	-11.8101
▁hero	-11.8104
▁임명	-11.8104
▁grab	-11.8104
▁announce	-11.8105
▁바이러스	-11.8106
▁Creative	-11.8106
▁predicted	-11.8107
▁poetry	-11.8108
Category	-11.8108
▁hunting	-11.8108
굴	-11.8108
╬	-11.8109
☣	-11.811
▁때에는	-11.8111
▁JTBC	-11.8113
Output	-11.8114
작가	-11.8114
▁impressed	-11.8116
▁lemon	-11.8118
▁approximation	-11.8118
▁Franklin	-11.812
▁resume	-11.8121
채널	-11.8121
▁Address	-11.8122
▁Tax	-11.8123
결제	-11.8123
▁투자를	-11.8123
▁폴리	-11.8123
봉화	-11.8124
▁injection	-11.8125
▁도서	-11.8126
▁때문	-11.8127
▁Upper	-11.8127
▁불러	-11.8128
▁rugby	-11.8129
▁논문	-11.8129
▁horror	-11.813
▁mortality	-11.8132
➳	-11.8133
✍	-11.8133
▁Adobe	-11.8134
▁녹색	-11.8134
▁브랜드를	-11.8135
▁업로드	-11.8135
▁경쟁력	-11.8136
yo	-11.8137
▁코트	-11.8137
▁부드러운	-11.8138
▁abroad	-11.8138
ä	-11.8139
플러스	-11.8139
Can	-11.8139
▁카테고리	-11.8139
▁수요	-11.814
▁꾸	-11.8141
♮	-11.8141
력이	-11.8142
dom	-11.8142
Ch	-11.8143
hide	-11.8145
inner	-11.8145
쯤	-11.8145
▁Metal	-11.8146
bfakn	-11.8146
▁구간	-11.8147
▁드는	-11.8148
▁복사	-11.8149
▁resonance	-11.815
▁거주	-11.815
ure	-11.8153
☈	-11.8154
●	-11.8154
뷰	-11.8155
▁자원	-11.8156
▁tomography	-11.8158
▁Khan	-11.8159
▁accounting	-11.8159
창녕	-11.8159
inv	-11.8159
➹	-11.816
bl	-11.8161
▁respiratory	-11.8162
▁flows	-11.8163
▁활용할	-11.8163
▁THEN	-11.8165
▁사용하지	-11.8166
▁</	-11.8167
◄	-11.8167
▁많고	-11.8168
▁스키	-11.8168
▁나오고	-11.8168
☢	-11.8168
▁kernel	-11.817
▁국제공항	-11.817
▁곳을	-11.8175
▁출장샵	-11.8176
Definition	-11.8178
▁지금도	-11.818
▁Pay	-11.8181
▁brush	-11.8181
licenses	-11.8181
순위	-11.8183
▁눈이	-11.8183
벨	-11.8186
▁ignore	-11.8188
ade	-11.8189
ever	-11.8191
▁prevention	-11.8192
▁Palm	-11.8192
▁주제	-11.8192
▁인프라	-11.8194
▁소유	-11.8195
▁possibilities	-11.8198
ξ	-11.8199
▁virtually	-11.8199
▁룸	-11.82
▁coefficient	-11.82
▁Hu	-11.8201
▁주인공	-11.8201
▁샤	-11.8203
▁accommodate	-11.8205
▁ruled	-11.8205
온카	-11.8206
▁ministry	-11.821
▁ap	-11.8212
▁말씀을	-11.8214
John	-11.8214
▁adequate	-11.8215
▁전남	-11.8215
횡성	-11.8215
▁Within	-11.8215
▁대로	-11.8216
▁opera	-11.8217
개국	-11.8217
▁villages	-11.8217
lay	-11.822
▁CT	-11.822
▁relax	-11.822
tle	-11.8221
▁reads	-11.8222
▁survived	-11.8222
▁Technical	-11.8222
▁오류	-11.8224
코드	-11.8225
▁간이	-11.8225
▁guns	-11.8228
▁개설	-11.8229
구역	-11.8229
MA	-11.8234
▁메시지	-11.8234
▁twin	-11.8235
✄	-11.8235
▁mapping	-11.8235
▁폰	-11.8235
▁landing	-11.8237
▁amongst	-11.8237
▁transaction	-11.8237
sound	-11.8238
Pre	-11.8238
▁overcome	-11.8238
▁Guard	-11.8239
▁walks	-11.8239
▁complaint	-11.824
▁심리	-11.8242
딘	-11.8242
▁ty	-11.8244
▁Champions	-11.8245
Format	-11.8245
gs	-11.8246
야마토	-11.8247
love	-11.8251
대한민국	-11.8251
▁끊임없이	-11.8252
▁보고서	-11.8252
▁Baker	-11.8253
▁pins	-11.8258
의료	-11.8258
▁Wars	-11.8259
▁mesh	-11.8261
▁assault	-11.8262
사이즈	-11.8263
▁Gar	-11.8263
▁데스크	-11.8264
▁shaped	-11.8264
Al	-11.8264
▁예수	-11.8264
turn	-11.8264
done	-11.8265
("\	-11.8265
십	-11.8265
▁genus	-11.8265
질환	-11.8265
▁스틸	-11.8266
▁Nelson	-11.8266
잡	-11.8267
▁ruling	-11.8268
layer	-11.8271
▁따	-11.8271
abs	-11.8272
▁suite	-11.8272
▁upload	-11.8272
경상북도	-11.8273
)$.	-11.8275
any	-11.8275
▁연방	-11.8279
▁suspected	-11.8279
▁weapon	-11.8279
▁주목	-11.828
▁satisfy	-11.828
▁식사를	-11.8281
▁nursing	-11.8285
▁사항을	-11.8285
집니다	-11.8286
▁Bed	-11.8287
▁Sar	-11.8287
▁욕조	-11.8287
노동	-11.8287
▁Larry	-11.8288
려는	-11.8288
▁organisation	-11.8288
▁arc	-11.8289
▁NBC	-11.829
▁첫째	-11.829
▁지연	-11.829
▁oz	-11.8292
▁Plot	-11.8293
ika	-11.8293
▁평생	-11.8293
second	-11.8294
▁ensuring	-11.8294
)=\	-11.8296
▁Output	-11.8296
setCursor	-11.8296
▁Charlotte	-11.8297
▁국가의	-11.8297
▁호텔에서	-11.8297
▁소화	-11.8297
▁fl	-11.8298
olo	-11.8299
▁주행	-11.83
▁bilateral	-11.8303
hard	-11.8306
▁Industrial	-11.8307
주기	-11.831
▁Mal	-11.8313
▁않	-11.8314
▁맥주	-11.8315
▁Dakota	-11.8315
▁받기	-11.8316
▁delayed	-11.8316
▁본사	-11.8317
▁Mode	-11.8319
▁SEO	-11.8319
▁Record	-11.8319
Off	-11.832
▁Bal	-11.8322
텔	-11.8322
었고	-11.8323
▁annually	-11.8324
▁themes	-11.8324
▁nearest	-11.8327
▁먹	-11.8328
▁requiring	-11.8328
▁몰	-11.8329
pet	-11.8329
▁curriculum	-11.8329
▁넘치는	-11.8329
▁사람과	-11.8332
Main	-11.8332
▁폴	-11.8332
온라인바카라	-11.8333
결과	-11.8333
▁shapes	-11.8334
loader	-11.8334
Create	-11.8334
▁Plant	-11.8334
stack	-11.8334
▁heritage	-11.8335
▁업그레이드	-11.8338
▁tap	-11.8339
eo	-11.834
방콕	-11.8341
▁수리	-11.8342
▁convention	-11.8342
▁눈길을	-11.8343
봄	-11.8345
▁Fine	-11.8345
▁colleges	-11.8346
▁지금의	-11.8347
빵	-11.8348
prime	-11.835
▁한정	-11.835
▁느끼는	-11.8352
체계	-11.8352
▁regression	-11.8353
▁USE	-11.8354
▁감정	-11.8357
함과	-11.8358
ā	-11.8358
▁너무나	-11.8359
나요	-11.836
Entity	-11.836
▁hopefully	-11.836
▁한국에	-11.8361
합천	-11.8363
▁crossing	-11.8363
▁scroll	-11.8363
▁위에서	-11.8364
▁노동자	-11.8364
▁양방	-11.8365
자유	-11.8365
"))	-11.8366
▁Basketball	-11.8366
▁tours	-11.8367
▁Islamic	-11.8367
▁cyst	-11.8368
▁examine	-11.8369
▁아이를	-11.8369
▁intellectual	-11.837
▁빠져	-11.8372
▁Craig	-11.8373
▁터치	-11.8374
▁nations	-11.8377
▁removing	-11.8377
▁이건	-11.8378
▁algorithms	-11.8378
▁대해서도	-11.8378
▁Below	-11.8379
▁책상	-11.8379
▁Glass	-11.8379
▁chamber	-11.838
▁사건을	-11.8382
Proxy	-11.8382
▁rubber	-11.8384
▁반응을	-11.8385
▁레이저	-11.8386
▁digits	-11.8386
DF	-11.8386
▁blogs	-11.8387
▁carrier	-11.8388
▁compensation	-11.8389
▁현재까지	-11.8391
브랜드	-11.8391
▁balanced	-11.8391
▁Cemetery	-11.8392
▁Block	-11.8393
▁shorter	-11.8393
▁Lab	-11.8394
▁processor	-11.8394
동출장마사지	-11.8395
▁Sweet	-11.8395
▁휴대폰	-11.8395
▁Say	-11.8397
▁이게	-11.8397
법인	-11.8398
gan	-11.84
▁서류	-11.84
핀	-11.8402
fr	-11.8402
▁Movie	-11.8403
iness	-11.8403
Product	-11.8405
Play	-11.8405
▁servers	-11.8405
▁shadow	-11.8405
▁결합	-11.8405
▁dword	-11.8406
▁불과	-11.8408
▁소년	-11.8408
rock	-11.8409
▁smoking	-11.8409
▁quarterback	-11.841
▁populations	-11.8413
▁colours	-11.8413
▁inflammatory	-11.8414
▁이르는	-11.8414
▁걸어	-11.8416
:\	-11.8418
▁단독	-11.8419
GET	-11.8419
▁divide	-11.8421
▁Alaska	-11.8421
▁dozen	-11.8421
protobuf	-11.8421
χ	-11.8422
queries	-11.8422
▁popularity	-11.8422
▁동료	-11.8423
벽	-11.8427
▁dominant	-11.8427
▁Python	-11.8427
▁Target	-11.8428
▁택	-11.8428
▁BY	-11.8429
......	-11.843
▁문화를	-11.8431
▁burn	-11.8432
▁선생님	-11.8432
▁Beat	-11.8432
▁rings	-11.8433
▁평	-11.8433
▁wanting	-11.8433
▁ceiling	-11.8433
Msg	-11.8434
벤	-11.8434
▁galaxy	-11.8434
▁literacy	-11.8439
▁레벨	-11.8439
▁Wait	-11.8439
▁몇몇	-11.8439
▁paintings	-11.844
▁크	-11.844
▁Tigers	-11.8441
▁quark	-11.8442
▁오디오	-11.8445
▁최근에는	-11.8445
Day	-11.8446
▁Sum	-11.8447
▁공감	-11.8447
빙	-11.8448
▁reveals	-11.8449
▁자유한국당	-11.8449
Animation	-11.8449
▁논란	-11.845
▁맛을	-11.8451
▁감독은	-11.8453
▁cycles	-11.8454
▁수상자	-11.8454
해온	-11.8454
▁Term	-11.8454
▁수령	-11.8456
Entry	-11.8456
수도	-11.8457
▁Cover	-11.8457
▁지상	-11.8458
▁simultaneously	-11.8458
▁개방	-11.846
▁Carter	-11.846
▁dont	-11.8461
▁CH	-11.8462
▁export	-11.8462
▁Issue	-11.8464
▁tons	-11.8465
lab	-11.8466
▁Roy	-11.8467
▁SA	-11.8468
원으로	-11.8468
▁harm	-11.8469
▁acceleration	-11.8471
mb	-11.8472
▁선택한	-11.8472
▁축	-11.8472
article	-11.8473
▁Kitchen	-11.8474
해피	-11.8474
▁verify	-11.8475
▁가야	-11.8476
연대	-11.8476
용으로	-11.8476
▁complaints	-11.848
▁garlic	-11.848
ψ	-11.8481
▁symmetry	-11.8481
▁강조	-11.8482
▁insulin	-11.8482
▁worried	-11.8482
▁bronze	-11.8482
▁Jazz	-11.8483
▁Screen	-11.8484
▁마이크로	-11.8484
▁라이트	-11.8486
cu	-11.8486
▁초등학교	-11.8487
▁때부터	-11.8488
what	-11.8488
▁획득	-11.8489
▁【	-11.8489
日	-11.8489
▁observe	-11.8491
▁Σ	-11.8492
▁대표하는	-11.8492
▁Ne	-11.8492
CF	-11.8492
▁argue	-11.8494
▁jp	-11.8495
▁Graham	-11.8495
Wire	-11.8495
▁steam	-11.8498
san	-11.8498
▁모니터	-11.8498
▁Brand	-11.8498
care	-11.8499
▁Gray	-11.8499
Dialog	-11.8501
▁소장	-11.8503
ious	-11.8503
해왔다	-11.8503
▁해요	-11.8503
할인	-11.8505
▁arrangements	-11.8506
▁Moreover	-11.8508
▁bacteria	-11.851
▁recurrence	-11.851
Float	-11.851
▁자리에서	-11.8511
に	-11.8511
▁fault	-11.8511
▁Corp	-11.8512
▁duties	-11.8512
▁inventory	-11.8512
▁acres	-11.8513
▁EUR	-11.8515
▁ratings	-11.8517
협력	-11.8518
▁Grade	-11.8518
▁왼쪽	-11.8519
같이	-11.8519
▁crystal	-11.8519
▁underwent	-11.8519
▁생존	-11.852
▁느낌	-11.852
주년을	-11.8523
を	-11.8524
stein	-11.8524
▁picking	-11.8525
▁fitting	-11.8525
dar	-11.8526
ora	-11.8526
만원을	-11.8526
▁방역	-11.8527
ks	-11.8528
득	-11.8528
▁finest	-11.8528
▁임대	-11.8528
▁mistakes	-11.8528
school	-11.8529
덴	-11.8529
▁의류	-11.8529
▁repeatedly	-11.853
▁Hunter	-11.8531
▁얻은	-11.8531
▁상태를	-11.8533
SD	-11.8534
▁Weather	-11.8535
arr	-11.8535
▁파악	-11.8535
▁Hello	-11.8536
▁worship	-11.8537
▁없어서	-11.8538
마켓	-11.8539
▁Kate	-11.8539
님이	-11.854
▁여부	-11.854
▁encounter	-11.8541
▁abilities	-11.8542
▁안전하게	-11.8543
▁ME	-11.8544
double	-11.8544
앙	-11.8545
▁독일의	-11.8547
▁Had	-11.8548
then	-11.8549
▁안보	-11.855
aki	-11.855
▁Bus	-11.8551
▁OPTIONS	-11.8552
▁Sorry	-11.8553
ify	-11.8554
▁세계를	-11.8555
▁predict	-11.8557
Factory	-11.8558
▁Estate	-11.8558
▁cooling	-11.8559
▁jewelry	-11.856
▁(+	-11.856
▁quotes	-11.8561
▁암호화폐	-11.8562
▁백신	-11.8563
▁계정	-11.8563
▁disabled	-11.8565
▁밝은	-11.8566
ld	-11.8567
▁swing	-11.8567
AR	-11.8568
▁놀이터	-11.8568
베이	-11.8569
▁gathered	-11.857
when	-11.857
▁Kar	-11.8571
▁reporter	-11.8573
zen	-11.8573
▁orientation	-11.8573
해진	-11.8574
▁출간	-11.8575
▁vessel	-11.8575
Part	-11.8576
▁soap	-11.8577
▁부정	-11.8578
▁briefly	-11.8579
▁Quick	-11.8581
다른	-11.8582
▁스튜디오	-11.8582
▁앉아	-11.8584
▁선교	-11.8586
▁탑	-11.8586
▁세계의	-11.8586
▁restrictions	-11.8587
▁혹시	-11.8587
oid	-11.8588
▁덕	-11.8589
▁Furthermore	-11.859
▁접	-11.859
▁가기	-11.8591
머리	-11.8591
▁Environment	-11.8592
▁clflush	-11.8592
오피걸	-11.8593
박물관	-11.8593
window	-11.8594
▁뿐이다	-11.8595
▁flux	-11.8595
▁나눔	-11.8596
▁ha	-11.8599
▁Sp	-11.8599
▁편하게	-11.8601
▁;;	-11.8602
모든	-11.8602
▁aliased	-11.8603
▁orbit	-11.8604
▁그럴	-11.8605
▁€	-11.8605
▁정품	-11.8605
▁침해	-11.8606
까지는	-11.8606
▁세계적으로	-11.8608
축구	-11.8609
맥	-11.861
▁prayer	-11.8611
▁municipal	-11.8611
▁horses	-11.8612
▁dense	-11.8612
▁Reviews	-11.8613
▁Barbara	-11.8613
Channel	-11.8616
▁gradually	-11.8617
▁Customer	-11.8617
▁전부터	-11.8618
Prop	-11.8619
▁begun	-11.862
▁뒷	-11.8621
▁loving	-11.8621
▁photographer	-11.8622
Per	-11.8623
See	-11.8623
▁하우스	-11.8623
▁Lin	-11.8625
▁베이징	-11.8627
▁wider	-11.8627
▁가질	-11.8628
▁loading	-11.8628
$\	-11.863
▁Min	-11.8631
▁Tan	-11.8632
▁부분에	-11.8633
▁칠	-11.8635
▁액션	-11.8635
▁compound	-11.8635
되거나	-11.8636
▁placement	-11.8636
bg	-11.8636
▁담고	-11.8638
▁gray	-11.8638
▁importantly	-11.8639
▁인터넷을	-11.8639
▁sampling	-11.864
▁아무런	-11.864
▁Cap	-11.8643
TH	-11.8643
uring	-11.8643
▁NASA	-11.8644
▁Transport	-11.8644
겠지만	-11.8644
▁인재	-11.8645
▁Marc	-11.8645
▁regulation	-11.8646
▁개발자	-11.8649
▁진화	-11.865
▁musician	-11.865
▁교류	-11.8651
평화	-11.8652
▁Les	-11.8652
▁gate	-11.8653
▁burning	-11.8654
▁Czech	-11.8654
▁Enterprise	-11.8655
¶	-11.8657
▁구미	-11.8657
▁symbols	-11.8661
▁cache	-11.8662
▁churches	-11.8663
▁Stars	-11.8665
Equiv	-11.8666
LP	-11.8667
▁Oak	-11.8667
▁indoor	-11.8669
▁unexpected	-11.8669
▁Mel	-11.867
▁알려	-11.8671
mont	-11.8675
meter	-11.8675
▁폐쇄	-11.8677
▁무조건	-11.8677
▁달라	-11.8677
about	-11.8679
▁Char	-11.8679
▁한달	-11.868
월에는	-11.8681
▁갤러리	-11.8682
▁소리를	-11.8683
일에는	-11.8684
▁ADD	-11.8684
▁spectra	-11.8685
▁공모	-11.8685
bridge	-11.8685
xe	-11.8685
▁Mu	-11.8687
▁drove	-11.8688
▁supporters	-11.8689
▁dialogue	-11.869
중인	-11.8692
▁preserve	-11.8694
▁mechanisms	-11.8694
▁spectral	-11.8697
▁STRING	-11.8697
▁Element	-11.8699
正	-11.8699
ona	-11.8701
▁Marshall	-11.8702
▁원주	-11.8704
CM	-11.8705
▁관람	-11.8705
▁충북	-11.8705
▁오직	-11.8707
▁직무	-11.8707
▁예상된다	-11.8708
▁Trip	-11.8708
▁mstate	-11.8709
▁하실	-11.871
삼성	-11.871
▁경마	-11.871
▁letting	-11.871
▁거제	-11.8711
hill	-11.8711
Mar	-11.8712
▁onset	-11.8712
▁Glen	-11.8713
span	-11.8714
yes	-11.8714
▁먼	-11.8715
▁수용	-11.8716
▁rv	-11.8716
▁Notable	-11.8718
▁Sale	-11.8719
회를	-11.872
▁Planning	-11.8721
▁끝까지	-11.8721
▁Palace	-11.8722
playat	-11.8722
▁pizza	-11.8722
▁무엇인가	-11.8725
▁변환	-11.8727
▁분명히	-11.8728
▁충돌	-11.8728
▁mess	-11.8729
▁자녀	-11.8729
▁시간은	-11.8729
문학	-11.873
▁Blood	-11.873
ero	-11.8733
▁salad	-11.8734
NS	-11.8735
tar	-11.8735
▁Direct	-11.8738
▁pad	-11.874
▁기술이	-11.8742
▁generations	-11.8744
▁갖는	-11.8745
safe	-11.8745
ug	-11.8747
▁축하	-11.8748
ties	-11.8748
Story	-11.8749
북한	-11.8749
elli	-11.8749
▁남편	-11.875
▁governments	-11.875
▁suggesting	-11.8751
▁올린	-11.8751
▁slight	-11.8753
▁게시판	-11.8753
▁미만	-11.8757
▁Er	-11.8758
▁restricted	-11.8758
▁이달	-11.8759
▁delivering	-11.8761
▁짐	-11.8761
▁appearing	-11.8762
▁Request	-11.8762
▁대화를	-11.8763
▁blind	-11.8763
포럼	-11.8764
▁성경	-11.8764
▁맞춤	-11.8765
▁의혹	-11.8765
▁휴	-11.8767
▁Default	-11.8767
ast	-11.8768
▁받는다	-11.8769
증권	-11.8769
▁attract	-11.8769
▁structural	-11.8769
▁Manhattan	-11.8772
▁Buffalo	-11.8773
▁Billy	-11.8773
▁저항	-11.8774
▁Knight	-11.8775
▁헌법	-11.8775
bool	-11.8775
▁Century	-11.8776
che	-11.8777
▁peripheral	-11.8778
▁부대	-11.8778
▁잠	-11.8782
▁복잡한	-11.8782
MM	-11.8782
▁oh	-11.8782
▁봉사	-11.8783
▁것이라	-11.8785
vis	-11.8785
Long	-11.8786
▁소형	-11.8787
▁funded	-11.8789
▁이상을	-11.879
▁Perfect	-11.8791
▁마치고	-11.8792
▁strings	-11.8792
▁Engine	-11.8792
raw	-11.8792
▁폭발	-11.8793
▁본격적으로	-11.8794
▁싱가포르	-11.8794
▁방법에	-11.8795
▁composer	-11.8797
장치	-11.8797
▁agenda	-11.8798
▁시대를	-11.8798
○	-11.8799
▁Eye	-11.8799
▁pushing	-11.8799
▁요약	-11.88
不	-11.88
▁declare	-11.8802
▁<-	-11.8803
]+	-11.8805
▁오렌지	-11.8806
▁Juan	-11.8808
▁Character	-11.8809
▁overnight	-11.881
▁Cooper	-11.8811
▁김동	-11.8811
▁Galaxy	-11.8813
▁sing	-11.8813
▁trailer	-11.8814
▁gym	-11.8814
▁앱을	-11.8814
▁유아	-11.8814
cd	-11.8815
▁첨단	-11.8816
▁succeed	-11.8817
motor	-11.8818
full	-11.882
▁Mail	-11.8821
▁사진으로	-11.8821
▁부터	-11.8821
위원	-11.8822
▁chips	-11.8822
Module	-11.8823
▁탄	-11.8824
▁Places	-11.8826
▁worker	-11.8827
Changed	-11.8827
▁목포	-11.8827
▁Ward	-11.8827
▁사랑의	-11.8828
▁folk	-11.8829
▁추석	-11.8829
ding	-11.8829
▁token	-11.883
▁회전	-11.883
▁편성	-11.8832
▁레이	-11.8835
▁stellar	-11.8836
zi	-11.8836
▁Property	-11.8836
▁initiatives	-11.8837
▁calm	-11.8837
▁invite	-11.8838
▁Hawaii	-11.8838
▁의식	-11.8839
▁exclusively	-11.884
▁봅니다	-11.884
','	-11.8841
▁specify	-11.8843
▁okay	-11.8843
gy	-11.8843
▁만든다	-11.8844
▁safely	-11.8848
▁Roll	-11.8849
▁Jimmy	-11.8851
▁lineup	-11.8851
▁Rio	-11.8852
address	-11.8852
▁Job	-11.8853
▁차원에서	-11.8853
▁compilation	-11.8854
▁Kent	-11.8854
CE	-11.8855
▁declined	-11.8856
▁Com	-11.8856
▁예약을	-11.8857
닉	-11.8857
▁angular	-11.8857
▁engineers	-11.8858
Byte	-11.8858
더군요	-11.8859
▁Ba	-11.8859
▁employer	-11.8859
▁fitted	-11.8859
▁inclusion	-11.886
▁부과	-11.8861
▁의미한다	-11.8862
흥출장안마	-11.8863
▁전날	-11.8863
▁exploring	-11.8863
▁CREATE	-11.8864
oni	-11.8865
▁vocal	-11.8866
▁말해	-11.8867
▁일에	-11.8867
▁육군	-11.8867
▁cited	-11.8868
▁settle	-11.8868
▁facial	-11.8869
▁actively	-11.887
▁섬유	-11.887
▁supplied	-11.8871
▁Bur	-11.8873
Price	-11.8873
경찰	-11.8874
다리	-11.8875
▁exploration	-11.8876
▁분야에	-11.8876
▁안양	-11.8877
High	-11.8878
sym	-11.888
▁segments	-11.888
▁acquire	-11.8881
▁followers	-11.8881
▁중심의	-11.8882
▁취급	-11.8883
▁외교	-11.8884
BE	-11.8884
일까	-11.8885
▁구속	-11.8885
▁completing	-11.8885
▁명품	-11.8886
▁phrase	-11.8887
▁Ring	-11.8888
▁캐	-11.8888
▁reduces	-11.889
▁진료	-11.889
▁설립된	-11.889
놀이	-11.8891
▁tension	-11.8897
▁Process	-11.8897
▁안동	-11.8898
▁danger	-11.8898
▁해변	-11.8899
▁Ever	-11.89
▁Representatives	-11.89
▁workshops	-11.89
▁Cash	-11.8901
▁말로	-11.8902
▁stats	-11.8903
▁advantages	-11.8904
▁후에는	-11.8908
Space	-11.8908
▁exercises	-11.8908
▁진보	-11.8909
▁render	-11.8909
▁토요일	-11.891
지금	-11.891
하므로	-11.891
▁사전에	-11.8911
Total	-11.8912
▁tagged	-11.8912
▁진행되는	-11.8913
▁워싱턴	-11.8914
릿	-11.8914
▁artistic	-11.8914
▁출범	-11.8915
▁절차	-11.8916
▁⍝	-11.8917
▁controversial	-11.8917
▁쌍	-11.8918
우리는	-11.8918
레이	-11.8919
▁interact	-11.8919
bound	-11.8919
▁fought	-11.892
▁Angel	-11.8921
▁beneficial	-11.8923
▁Tower	-11.8924
▁AR	-11.8925
▁MIT	-11.8925
oli	-11.8926
▁Practice	-11.8926
▁충남	-11.8926
▁steady	-11.8927
▁공간이	-11.8927
▁아티스트	-11.8928
▁renamed	-11.8929
lv	-11.893
▁alleged	-11.8931
▁adapted	-11.8931
▁없기	-11.8931
위는	-11.8932
▁정확하게	-11.8933
전기	-11.8933
▁Walter	-11.8934
▁checks	-11.8934
전을	-11.8934
Web	-11.8934
화학	-11.8935
▁Stay	-11.8936
▁맞	-11.8937
케이	-11.8939
▁operational	-11.894
▁moral	-11.894
▁바닥	-11.8941
▁Var	-11.8941
idae	-11.8941
▁considerable	-11.8941
◇	-11.8942
▁이웃	-11.8942
▁scalar	-11.8943
▁und	-11.8943
▁establishment	-11.8943
▁아예	-11.8944
handler	-11.8945
▁기사를	-11.8945
▁이래	-11.8948
▁Ridge	-11.8948
▁INTO	-11.8948
▁cabinet	-11.8948
▁재개	-11.8948
▁Sean	-11.895
▁Nice	-11.8951
▁서울대	-11.8953
▁UEFA	-11.8954
▁campaigns	-11.8954
▁booking	-11.8954
MBC	-11.8954
▁arrangement	-11.8955
콜걸추천	-11.8957
etease	-11.8957
려면	-11.8957
▁collision	-11.8958
▁notation	-11.8959
▁본격적인	-11.896
팬	-11.896
▁Matrix	-11.8961
▁Categories	-11.8964
기록	-11.8965
lines	-11.8966
▁nominated	-11.8966
▁전년	-11.8966
하겠습니다	-11.8966
▁경로	-11.8967
능력	-11.8967
▁Seven	-11.8968
소개	-11.8969
▁의지	-11.897
ldots	-11.897
▁많았다	-11.8971
토토사이트추천	-11.8972
▁≤	-11.8972
▁carpet	-11.8973
ep	-11.8974
▁시인	-11.8975
eh	-11.8976
▁Ian	-11.8976
▁Universal	-11.8977
커피	-11.8979
답니다	-11.898
▁judges	-11.8981
▁피해자	-11.8983
미터	-11.8983
▁상상	-11.8984
▁펀드	-11.8984
▁chemotherapy	-11.8984
▁poet	-11.8986
▁크림	-11.8986
▁sheets	-11.8986
away	-11.8987
▁증거	-11.8987
▁Bag	-11.8988
▁증상이	-11.899
tes	-11.8991
▁robust	-11.8991
▁restoration	-11.8992
▁span	-11.8993
↓	-11.8993
▁cooked	-11.8994
▁Move	-11.8994
응	-11.8994
▁employers	-11.8994
▁surprising	-11.8994
▁낮	-11.8995
▁separation	-11.8996
▁expatriate	-11.8997
▁Cole	-11.8998
▁fraud	-11.9001
▁independence	-11.9003
▁티셔츠	-11.9003
Inject	-11.9004
PD	-11.9004
▁추적	-11.9005
가요	-11.9005
휘	-11.9005
df	-11.9005
케어	-11.9005
▁Hart	-11.9005
▁Labour	-11.9007
▁Jennifer	-11.9008
▁운	-11.9008
▁항	-11.9008
▁[[	-11.9008
▁대기업	-11.9009
▁olive	-11.901
▁콩	-11.901
▁부서	-11.9011
Temp	-11.9012
▁실시간으로	-11.9012
Tree	-11.9013
▁sudden	-11.9013
Callback	-11.9013
▁아마도	-11.9017
▁Oscar	-11.9018
▁Ash	-11.902
mask	-11.902
▁magazines	-11.9023
▁화가	-11.9023
▁Historical	-11.9023
▁순천	-11.9024
으니	-11.9024
▁전략을	-11.9026
▁Profile	-11.9028
mac	-11.9029
assets	-11.9029
rick	-11.903
▁저작권침해	-11.903
▁Hey	-11.9031
▁paths	-11.9031
▁Sat	-11.9034
▁었	-11.9035
▁강남안마	-11.9036
랄	-11.9036
▁포함된	-11.9036
▁Pen	-11.9037
▁잡지	-11.9038
▁출전	-11.9039
▁것이었다	-11.9041
▁arbitrary	-11.9042
▁quit	-11.9043
▁plates	-11.9043
▁systemic	-11.9043
청년	-11.9043
▁현상	-11.9044
▁indicating	-11.9044
▁grey	-11.9045
▁suicide	-11.9046
▁피트니스	-11.9046
▁Moscow	-11.9047
▁infected	-11.9047
▁호텔의	-11.9049
▁호텔은	-11.905
▁attractions	-11.9052
shop	-11.9053
콜걸출장마사지	-11.9053
▁swap	-11.9053
▁wildlife	-11.9056
depth	-11.9056
pattern	-11.9056
TC	-11.9056
▁그러면	-11.9056
▁Fu	-11.9058
받아	-11.9058
▁말에	-11.9059
▁잡	-11.9059
▁islands	-11.9059
▁Malaysia	-11.9061
▁constraints	-11.9061
▁worn	-11.9062
▁이유를	-11.9063
▁beans	-11.9064
투데이	-11.9065
에서부터	-11.9065
lie	-11.9066
▁Chair	-11.9067
인당	-11.9067
▁wheels	-11.9068
live	-11.9069
▁competing	-11.9069
method	-11.907
▁affects	-11.907
▁anxiety	-11.907
expr	-11.9071
▁구름	-11.9071
▁dough	-11.9072
apos	-11.9073
▁Mind	-11.9073
▁Along	-11.9074
ese	-11.9074
▁Perry	-11.9074
▁입은	-11.9075
▁GA	-11.9076
xf	-11.9077
▁ᆞ	-11.9079
▁closest	-11.9083
로써	-11.9083
▁보며	-11.9086
▁Brothers	-11.9086
▁있나요	-11.9086
乡	-11.9086
▁processed	-11.9087
▁히	-11.9087
▁separately	-11.9088
▁일찍	-11.9088
▁hi	-11.9089
▁Broadway	-11.9089
▁협의	-11.9089
콩	-11.909
PE	-11.9092
▁옮겨	-11.9092
▁investments	-11.9093
repo	-11.9094
▁profiles	-11.9095
▁Circle	-11.9095
▁CF	-11.9097
▁입주	-11.9097
▁어디	-11.9098
EN	-11.9099
▁matrices	-11.91
▁신용	-11.91
aligned	-11.91
▁cong	-11.91
▁placing	-11.9101
드라마	-11.9102
ala	-11.9102
▁partially	-11.9102
▁Philippines	-11.9102
▁Until	-11.9102
▁점이다	-11.9105
▁meaningful	-11.9105
SPI	-11.9106
▁Besides	-11.9107
▁opt	-11.9108
▁stocks	-11.9108
RIGHT	-11.9109
▁boundaries	-11.911
▁도움	-11.9112
▁멕시코	-11.9113
AF	-11.9113
▁목소리를	-11.9113
▁매월	-11.9114
▁장면	-11.9114
▁salary	-11.9115
활동을	-11.9116
▁collective	-11.9116
개인	-11.9116
▁김성	-11.9117
▁Organization	-11.9118
▁modules	-11.9119
pan	-11.9119
[...]
